unsigned char cnn_rgb_32_quant_tflite[] = {
  0x1c, 0x00, 0x00, 0x00, 0x54, 0x46, 0x4c, 0x33, 0x00, 0x00, 0x12, 0x00,
  0x1c, 0x00, 0x18, 0x00, 0x14, 0x00, 0x10, 0x00, 0x0c, 0x00, 0x08, 0x00,
  0x00, 0x00, 0x04, 0x00, 0x12, 0x00, 0x00, 0x00, 0x18, 0x00, 0x00, 0x00,
  0x48, 0x00, 0x00, 0x00, 0x30, 0x35, 0x00, 0x00, 0x40, 0x35, 0x00, 0x00,
  0x70, 0x4c, 0x00, 0x00, 0x03, 0x00, 0x00, 0x00, 0x01, 0x00, 0x00, 0x00,
  0x0c, 0x00, 0x00, 0x00, 0x08, 0x00, 0x0c, 0x00, 0x08, 0x00, 0x04, 0x00,
  0x08, 0x00, 0x00, 0x00, 0x10, 0x00, 0x00, 0x00, 0x04, 0x00, 0x00, 0x00,
  0x13, 0x00, 0x00, 0x00, 0x6d, 0x69, 0x6e, 0x5f, 0x72, 0x75, 0x6e, 0x74,
  0x69, 0x6d, 0x65, 0x5f, 0x76, 0x65, 0x72, 0x73, 0x69, 0x6f, 0x6e, 0x00,
  0x11, 0x00, 0x00, 0x00, 0xe4, 0x34, 0x00, 0x00, 0xdc, 0x34, 0x00, 0x00,
  0x4c, 0x34, 0x00, 0x00, 0x3c, 0x33, 0x00, 0x00, 0x24, 0x33, 0x00, 0x00,
  0x0c, 0x33, 0x00, 0x00, 0x7c, 0x26, 0x00, 0x00, 0x6c, 0x20, 0x00, 0x00,
  0x5c, 0x00, 0x00, 0x00, 0x54, 0x00, 0x00, 0x00, 0x4c, 0x00, 0x00, 0x00,
  0x44, 0x00, 0x00, 0x00, 0x3c, 0x00, 0x00, 0x00, 0x34, 0x00, 0x00, 0x00,
  0x2c, 0x00, 0x00, 0x00, 0x24, 0x00, 0x00, 0x00, 0x04, 0x00, 0x00, 0x00,
  0xd2, 0xca, 0xff, 0xff, 0x04, 0x00, 0x00, 0x00, 0x10, 0x00, 0x00, 0x00,
  0x31, 0x2e, 0x35, 0x2e, 0x30, 0x00, 0x00, 0x00, 0x00, 0x00, 0x00, 0x00,
  0x00, 0x00, 0x00, 0x00, 0x00, 0xbb, 0xff, 0xff, 0x04, 0xbb, 0xff, 0xff,
  0x08, 0xbb, 0xff, 0xff, 0x0c, 0xbb, 0xff, 0xff, 0x10, 0xbb, 0xff, 0xff,
  0x14, 0xbb, 0xff, 0xff, 0x18, 0xbb, 0xff, 0xff, 0x0a, 0xcb, 0xff, 0xff,
  0x04, 0x00, 0x00, 0x00, 0x00, 0x20, 0x00, 0x00, 0x05, 0x59, 0xfa, 0x2c,
  0x22, 0xab, 0xfc, 0xe0, 0x73, 0xa1, 0xcb, 0x6d, 0xe7, 0x5e, 0x2d, 0xa6,
  0x89, 0x9c, 0xf7, 0x10, 0xa6, 0xd8, 0x50, 0xf8, 0x26, 0x15, 0xe5, 0xda,
  0x3e, 0xe3, 0x9f, 0x2b, 0x90, 0x2b, 0x8a, 0x3b, 0x10, 0xbc, 0x33, 0xa9,
  0x59, 0x62, 0x3e, 0x23, 0xfe, 0x42, 0xe2, 0xf6, 0xab, 0xdf, 0xbd, 0x38,
  0xaa, 0x43, 0x33, 0x1d, 0x9b, 0xfc, 0xf3, 0x0c, 0x54, 0xc4, 0x34, 0xa1,
  0x98, 0x38, 0x10, 0xa9, 0xdb, 0x14, 0xcd, 0xb9, 0xd1, 0x38, 0x11, 0x7f,
  0xc2, 0x4d, 0x45, 0x26, 0x24, 0x2a, 0xa6, 0x2f, 0xb5, 0xee, 0xd2, 0xde,
  0x16, 0x1a, 0xf8, 0xc7, 0x36, 0xf4, 0xdf, 0x64, 0xa7, 0xe8, 0x57, 0xdd,
  0x2a, 0x4d, 0xc0, 0x51, 0x4e, 0x07, 0x27, 0x37, 0xc3, 0x28, 0x68, 0x0b,
  0x0f, 0x20, 0xab, 0x47, 0xb8, 0x47, 0xc2, 0x5d, 0x94, 0xd8, 0x8e, 0x27,
  0x3d, 0xcf, 0x3c, 0xaf, 0xe6, 0xde, 0xc8, 0xa3, 0xbd, 0x58, 0x26, 0x39,
  0x4e, 0xdd, 0x29, 0xc5, 0xe9, 0xf3, 0x31, 0x38, 0x1f, 0x11, 0x0a, 0x37,
  0xf9, 0xdd, 0x39, 0xa4, 0xb9, 0x16, 0x21, 0xc6, 0xd0, 0xe5, 0x17, 0x42,
  0x0e, 0x17, 0x22, 0x2e, 0xf6, 0x77, 0x1e, 0x23, 0x17, 0xfd, 0xe0, 0xdc,
  0xca, 0xdc, 0x2c, 0xb0, 0xbf, 0x1c, 0xde, 0xfc, 0xc7, 0xf6, 0x2d, 0x12,
  0xc3, 0xfd, 0x35, 0xf8, 0x42, 0x4d, 0xb7, 0x22, 0x22, 0xbd, 0x1e, 0x0f,
  0x27, 0xfa, 0xe8, 0xb9, 0x56, 0xfd, 0x1e, 0x02, 0x39, 0x0b, 0xf2, 0x3e,
  0xfa, 0xc4, 0x29, 0xc2, 0xf4, 0x2d, 0x20, 0x0f, 0xcc, 0xc5, 0xea, 0x18,
  0xf9, 0xc1, 0xca, 0x13, 0x54, 0x22, 0xde, 0x2b, 0xcb, 0xaf, 0x3a, 0xde,
  0xe4, 0xf5, 0xc8, 0xac, 0x2a, 0xd4, 0x50, 0x37, 0x48, 0xb2, 0xe9, 0x1b,
  0xbf, 0x12, 0xc9, 0xa3, 0x81, 0x3e, 0x3f, 0x0f, 0xd2, 0xee, 0x14, 0x18,
  0xca, 0xd6, 0x03, 0xf5, 0x7f, 0xe7, 0xfe, 0xad, 0x11, 0xe0, 0xdf, 0x61,
  0x38, 0xfa, 0x18, 0x37, 0xe1, 0xd3, 0x2f, 0x09, 0x17, 0xd8, 0xc6, 0xf6,
  0xe7, 0xbc, 0x1e, 0xd2, 0x36, 0x43, 0xd2, 0x7e, 0x49, 0xbf, 0x0f, 0x09,
  0xf1, 0xe7, 0xb2, 0x95, 0x0d, 0xe1, 0xae, 0x2c, 0x9c, 0xa0, 0x67, 0x1b,
  0x51, 0xbb, 0xfb, 0xf0, 0x51, 0x1d, 0xca, 0xf5, 0x2a, 0xb9, 0xb1, 0x25,
  0x86, 0xe1, 0xb9, 0x4d, 0x42, 0xb0, 0xb4, 0x29, 0x0e, 0xfd, 0x54, 0x86,
  0xe1, 0x24, 0x2c, 0xd9, 0x8f, 0xa1, 0x54, 0xdb, 0x03, 0x6c, 0x58, 0xd2,
  0x92, 0x71, 0xc8, 0xc7, 0xb7, 0xff, 0x2d, 0x8b, 0x9d, 0xc6, 0x44, 0x20,
  0x46, 0xec, 0xc5, 0x21, 0xfa, 0x27, 0xe3, 0x07, 0xed, 0xc2, 0x27, 0x9c,
  0x24, 0x3c, 0x16, 0xda, 0x11, 0xf4, 0xe1, 0x03, 0x1d, 0x6d, 0x3f, 0xeb,
  0x86, 0xd6, 0x23, 0x12, 0xdf, 0x9d, 0xb1, 0xd1, 0x06, 0xd8, 0x5b, 0xfc,
  0x65, 0x55, 0x55, 0xdc, 0x03, 0x20, 0x0b, 0xa7, 0x21, 0x1e, 0x46, 0x81,
  0x47, 0xf1, 0xc2, 0x50, 0x3a, 0x2c, 0xe3, 0x60, 0x3a, 0xfa, 0x9c, 0x5e,
  0x39, 0x5a, 0xd2, 0xe8, 0xe9, 0x27, 0xe4, 0x47, 0xbf, 0x3e, 0xc0, 0xc9,
  0xa2, 0xdd, 0x54, 0xdd, 0x25, 0xa6, 0xc5, 0x94, 0x1f, 0xf8, 0xef, 0xcd,
  0xac, 0x0c, 0xdc, 0xac, 0xfd, 0xbe, 0x4e, 0x16, 0xc9, 0xc6, 0xc4, 0x8e,
  0xf1, 0x49, 0xf3, 0xa5, 0x47, 0xdf, 0xed, 0x45, 0x25, 0x29, 0x1f, 0x2a,
  0xb8, 0x59, 0x3c, 0xca, 0x82, 0x5b, 0x40, 0x4d, 0xec, 0xf4, 0x1a, 0xd8,
  0x04, 0xfd, 0x16, 0x66, 0xd6, 0xfe, 0x90, 0x8e, 0xc0, 0x2a, 0x52, 0xf0,
  0x61, 0x4a, 0x8d, 0x3d, 0x07, 0xcd, 0x27, 0xbf, 0x62, 0xf0, 0xe1, 0x59,
  0xcf, 0x29, 0x4f, 0xf4, 0x2c, 0xbd, 0xb1, 0xb7, 0x61, 0x32, 0xac, 0x0b,
  0x01, 0x23, 0x37, 0xfe, 0xfc, 0xbd, 0x16, 0x30, 0xf9, 0x1c, 0x02, 0x75,
  0xb3, 0x04, 0xc8, 0x27, 0x31, 0xe7, 0xfa, 0x9c, 0xf8, 0xc3, 0xa6, 0x1d,
  0xb0, 0x2d, 0xd2, 0x2d, 0xd2, 0x08, 0xf7, 0x4f, 0xdb, 0x52, 0x1b, 0xee,
  0xb5, 0x1e, 0xb2, 0x36, 0x57, 0x05, 0x57, 0x2c, 0x30, 0x16, 0xe7, 0x2c,
  0xdc, 0x21, 0x1c, 0x56, 0xcf, 0xb7, 0x23, 0xcf, 0xa7, 0xb1, 0x53, 0x5e,
  0x2a, 0x5e, 0xdc, 0x5b, 0x22, 0xf6, 0x10, 0x20, 0x38, 0x34, 0x6f, 0xf9,
  0x28, 0x51, 0xfe, 0x76, 0x06, 0xac, 0x54, 0x37, 0xb7, 0xfe, 0x03, 0xc1,
  0x13, 0xfe, 0xb9, 0xe5, 0x37, 0x3c, 0x24, 0x40, 0x2f, 0xc6, 0x12, 0x3c,
  0x4a, 0x05, 0xf2, 0xd5, 0x12, 0xd5, 0x3f, 0x05, 0x06, 0xc2, 0xd2, 0x09,
  0xa1, 0xfd, 0xc0, 0xf1, 0xd0, 0xa7, 0x71, 0x0d, 0x21, 0x1b, 0xd3, 0x45,
  0xd7, 0x99, 0xf7, 0x4a, 0xcc, 0xe8, 0xef, 0x0f, 0x7c, 0xca, 0xe1, 0x81,
  0x3d, 0x44, 0x28, 0x09, 0x48, 0x28, 0xdc, 0xee, 0x9e, 0x15, 0x3f, 0x26,
  0xeb, 0x7f, 0x43, 0xeb, 0xc3, 0xf8, 0x01, 0x17, 0xf7, 0x13, 0x0f, 0xea,
  0x29, 0xbb, 0xfe, 0xfb, 0x42, 0x24, 0x38, 0x50, 0x26, 0x08, 0xe9, 0x1e,
  0x40, 0xf0, 0xd7, 0xe1, 0xc5, 0xef, 0xa7, 0xf3, 0xd5, 0xf5, 0xf3, 0x5a,
  0x39, 0xed, 0x21, 0xb9, 0x19, 0xa8, 0xd7, 0x2c, 0x1f, 0xc0, 0x1c, 0x1d,
  0x06, 0xc1, 0x35, 0x2b, 0x46, 0xb5, 0xd9, 0x0d, 0xef, 0x2a, 0xc0, 0x1a,
  0x02, 0x21, 0xcf, 0x47, 0xa6, 0xd5, 0xe2, 0x0b, 0x0c, 0x24, 0xeb, 0x1d,
  0xc9, 0x03, 0x23, 0x6b, 0x07, 0x01, 0xd1, 0xcc, 0xf7, 0xfc, 0x4d, 0x60,
  0x3b, 0xf8, 0x5a, 0xbf, 0xed, 0xe7, 0xce, 0xf5, 0x4e, 0x29, 0x1d, 0xc5,
  0xed, 0x6a, 0x27, 0xe2, 0x4a, 0x17, 0x27, 0xb2, 0x0c, 0x17, 0x14, 0x46,
  0x03, 0xbc, 0xda, 0xe5, 0x16, 0xfc, 0x2e, 0x42, 0xf4, 0x17, 0xbf, 0x3a,
  0x5f, 0xe6, 0x4c, 0xe8, 0x7f, 0xc6, 0x23, 0xef, 0xc6, 0xf6, 0x49, 0x4d,
  0xf5, 0xe3, 0xb9, 0x1f, 0x18, 0xd9, 0xd4, 0x39, 0x59, 0x4e, 0xc2, 0x0e,
  0x8e, 0xdb, 0x42, 0x1f, 0x59, 0xd2, 0xe3, 0xd5, 0xe3, 0xe3, 0x05, 0xc8,
  0x78, 0xc2, 0x4d, 0x39, 0x61, 0xbe, 0xc2, 0x6c, 0xcb, 0xb8, 0xf1, 0x19,
  0x0e, 0xeb, 0xd6, 0xf6, 0xca, 0x17, 0xe8, 0xd0, 0xf0, 0xcd, 0x33, 0x2a,
  0xb5, 0x13, 0xdc, 0xce, 0xca, 0xfa, 0x19, 0xb9, 0x6d, 0xd2, 0xcb, 0xf2,
  0xbf, 0xe4, 0x1e, 0x20, 0xe2, 0x0c, 0xca, 0xbd, 0x19, 0x14, 0x3d, 0xeb,
  0xbe, 0xea, 0xed, 0x17, 0xb5, 0x00, 0xca, 0xc6, 0xd4, 0x3f, 0xda, 0x2a,
  0xca, 0x35, 0xf4, 0x9d, 0x17, 0x0b, 0xba, 0xb1, 0xae, 0xb5, 0x02, 0x21,
  0xcb, 0x19, 0xc0, 0x02, 0x2c, 0x37, 0x1d, 0xcd, 0x91, 0x56, 0x44, 0xff,
  0xc2, 0xf7, 0xc6, 0x3c, 0xf7, 0x02, 0x3a, 0xff, 0x1b, 0x31, 0x0e, 0x1c,
  0x7f, 0xfc, 0x07, 0xff, 0xf0, 0x1a, 0xef, 0x28, 0xc5, 0x05, 0xe0, 0xd1,
  0xcf, 0xcf, 0xb8, 0x25, 0x19, 0xc3, 0xe7, 0x43, 0x1e, 0xef, 0xcb, 0x73,
  0x1b, 0x46, 0x63, 0x2e, 0x2c, 0x42, 0xd0, 0x2e, 0x64, 0xff, 0x43, 0xc3,
  0x41, 0xc7, 0x4c, 0x24, 0x10, 0x31, 0xf4, 0xc4, 0x2a, 0xf7, 0x26, 0x16,
  0x43, 0x2c, 0x26, 0xcb, 0x31, 0xf5, 0x03, 0x31, 0x00, 0x19, 0x3b, 0x2b,
  0x34, 0xc6, 0xd4, 0x42, 0x53, 0x1b, 0x02, 0xcf, 0x1e, 0x09, 0x51, 0x0a,
  0xb8, 0xbf, 0x33, 0x17, 0xb1, 0x11, 0xc3, 0xd6, 0x34, 0x1e, 0x28, 0xf1,
  0x9f, 0x0b, 0x29, 0x34, 0xfe, 0xf0, 0x33, 0xf6, 0xfa, 0xfb, 0x17, 0x42,
  0x20, 0xc5, 0xd3, 0xfe, 0xd6, 0x2f, 0x3f, 0x54, 0x2a, 0xe2, 0x35, 0x2f,
  0xc5, 0xa7, 0x0b, 0xc6, 0xc9, 0xe8, 0xfb, 0x1d, 0x0a, 0x23, 0xdf, 0x53,
  0x3b, 0xc0, 0x0f, 0x15, 0xdd, 0x20, 0xf5, 0x53, 0x7f, 0xfc, 0x24, 0xe8,
  0x09, 0x0a, 0xd1, 0x0b, 0xe7, 0xf1, 0x0e, 0xae, 0x0a, 0xf5, 0xfc, 0x51,
  0x27, 0x22, 0xef, 0x04, 0x03, 0xfd, 0x29, 0x45, 0xe6, 0xcd, 0x40, 0x20,
  0x56, 0xee, 0x07, 0xe1, 0x5a, 0xb2, 0x2e, 0xce, 0x30, 0xdf, 0xeb, 0x0f,
  0xea, 0x3c, 0xe9, 0x30, 0x04, 0xe3, 0x22, 0xc6, 0xd3, 0x48, 0xd4, 0x36,
  0x37, 0x26, 0xe7, 0x25, 0xd9, 0x00, 0x37, 0xd5, 0xcc, 0x36, 0xc9, 0xe8,
  0x60, 0x1b, 0xc0, 0xad, 0xea, 0x1c, 0x4d, 0xc2, 0x19, 0x32, 0xd8, 0xcb,
  0xdf, 0x18, 0xca, 0x28, 0x23, 0x37, 0x01, 0xf5, 0xe0, 0xf1, 0xd6, 0x21,
  0x37, 0xc4, 0xea, 0x14, 0xfe, 0x01, 0xd8, 0xea, 0x66, 0xda, 0x0e, 0x16,
  0xdf, 0xee, 0xf2, 0xd4, 0xcc, 0x21, 0xc5, 0x23, 0xd6, 0x11, 0x24, 0xda,
  0xf8, 0x1a, 0xd9, 0x43, 0xe7, 0x23, 0xd6, 0x4a, 0x35, 0x4c, 0x5a, 0x2e,
  0x4f, 0x06, 0x2c, 0x1f, 0xd4, 0x12, 0xec, 0xe2, 0xe9, 0xe6, 0xc6, 0x06,
  0x8a, 0x13, 0x28, 0xe5, 0x14, 0xce, 0x13, 0xbe, 0xac, 0x02, 0x44, 0xb5,
  0x16, 0x3b, 0xc4, 0x47, 0x0c, 0xfa, 0x14, 0x0e, 0x60, 0xc3, 0xf3, 0x45,
  0xa3, 0x9c, 0xc8, 0xed, 0xde, 0x19, 0x32, 0x3c, 0xdc, 0xa0, 0xd5, 0x1f,
  0x30, 0xbd, 0x3a, 0x5f, 0x37, 0x4c, 0xf2, 0xfa, 0x3c, 0xf8, 0x1d, 0xb0,
  0x7c, 0xfe, 0x05, 0xa9, 0x1c, 0xe4, 0xfd, 0xc4, 0x14, 0x22, 0xfa, 0x37,
  0x37, 0xfb, 0xc8, 0xe0, 0x24, 0x12, 0xd1, 0x01, 0x0c, 0x3d, 0x02, 0xcc,
  0x7f, 0xee, 0x59, 0xdd, 0x1c, 0xa0, 0xb6, 0x53, 0x68, 0xc0, 0xcb, 0xdc,
  0x56, 0x4f, 0xf8, 0xc1, 0x35, 0xff, 0xa2, 0x27, 0x3a, 0xe9, 0x18, 0x64,
  0xe4, 0x95, 0x2f, 0x37, 0x08, 0xc4, 0x9d, 0xcf, 0x12, 0xb8, 0x45, 0xd2,
  0xee, 0xd8, 0xa4, 0x19, 0xe3, 0x00, 0x1e, 0xbc, 0x07, 0x60, 0x32, 0x00,
  0x11, 0xe7, 0xff, 0x3b, 0xe8, 0xbf, 0x1e, 0xda, 0x20, 0xd7, 0x00, 0xba,
  0x3e, 0x50, 0xea, 0x2e, 0x27, 0x09, 0x30, 0x4c, 0x23, 0xd3, 0xbd, 0x12,
  0x2c, 0xde, 0x13, 0xfd, 0x65, 0x2b, 0x35, 0x1a, 0xe7, 0xc2, 0xf9, 0x20,
  0xaf, 0x14, 0x63, 0xd6, 0xdf, 0xd6, 0xe9, 0x41, 0x22, 0x01, 0x2c, 0x4f,
  0xd6, 0xb2, 0x2c, 0x15, 0xff, 0x0a, 0xf3, 0x9f, 0x63, 0xb6, 0x62, 0xe3,
  0x0d, 0x58, 0xe5, 0xf8, 0xae, 0x32, 0xb2, 0x33, 0x0c, 0xe8, 0x05, 0xf2,
  0x41, 0xf7, 0x29, 0xe7, 0x03, 0x0b, 0x48, 0x07, 0x6f, 0x1a, 0xe7, 0x0c,
  0x2a, 0xc0, 0xa6, 0xd6, 0x32, 0xce, 0xe0, 0xe9, 0xd1, 0xde, 0x27, 0x69,
  0x05, 0x25, 0x0c, 0xe3, 0xd8, 0x04, 0x5d, 0x20, 0x20, 0xba, 0x02, 0xfa,
  0xdd, 0xd1, 0xb7, 0xd0, 0x49, 0xd2, 0xbf, 0x7f, 0x5c, 0xb3, 0x40, 0xe7,
  0x16, 0x16, 0x41, 0xe4, 0xe5, 0x3b, 0xfa, 0xd1, 0xcd, 0xcb, 0xd2, 0xda,
  0xfc, 0xed, 0x08, 0x28, 0x2d, 0x60, 0xb3, 0x19, 0x02, 0xf8, 0xda, 0xf0,
  0x45, 0xf5, 0x44, 0xea, 0x26, 0xc0, 0x05, 0x12, 0xcf, 0xc2, 0x00, 0x11,
  0xf1, 0x24, 0x40, 0x3e, 0x28, 0x2e, 0xbf, 0xf7, 0x38, 0x42, 0x4e, 0xd9,
  0x2f, 0x4d, 0x21, 0xed, 0xf0, 0xfc, 0x34, 0x4b, 0x23, 0xe3, 0x3e, 0x16,
  0x3b, 0xfa, 0x49, 0x26, 0xeb, 0x61, 0x35, 0xdc, 0xe0, 0xf3, 0x1e, 0x37,
  0xe7, 0xe1, 0x50, 0x2c, 0xd0, 0xe0, 0x10, 0xe1, 0x0c, 0xec, 0x23, 0x0a,
  0x02, 0x14, 0xca, 0x40, 0x7f, 0xda, 0x30, 0x25, 0x61, 0x0f, 0xcb, 0x0f,
  0xe4, 0x4b, 0xc6, 0x23, 0xbb, 0x3d, 0x3d, 0x6a, 0xb0, 0x32, 0xc0, 0xee,
  0x0c, 0xc2, 0xf2, 0xda, 0xee, 0xe5, 0x2c, 0xef, 0xe1, 0xe0, 0x16, 0xcb,
  0x20, 0xc0, 0xc3, 0xda, 0x02, 0xbc, 0x04, 0x2e, 0x12, 0xb9, 0x31, 0xbf,
  0x5d, 0x7b, 0xe8, 0x7f, 0xb1, 0x2b, 0x99, 0x6d, 0xac, 0x54, 0xca, 0xd1,
  0x0f, 0x23, 0xed, 0x3f, 0xcc, 0x93, 0xee, 0xe8, 0xbd, 0xe1, 0x8a, 0x67,
  0x28, 0x22, 0x35, 0x71, 0x21, 0xbe, 0x5a, 0xa7, 0xb7, 0x59, 0x55, 0x20,
  0x56, 0xe1, 0xc3, 0x5f, 0x8f, 0xb0, 0x11, 0x0a, 0x90, 0x04, 0xb6, 0x24,
  0x37, 0xc8, 0xc0, 0xc6, 0x87, 0xab, 0x19, 0x77, 0x34, 0xc5, 0x50, 0x7f,
  0xcd, 0x91, 0x5f, 0x44, 0x31, 0xb2, 0xbb, 0xc5, 0x90, 0x23, 0x8c, 0x08,
  0x03, 0xa1, 0x67, 0x1e, 0x06, 0x35, 0xef, 0x0f, 0x8c, 0x47, 0xee, 0x2f,
  0x2e, 0xbf, 0x48, 0xef, 0xe7, 0x68, 0x2e, 0xcd, 0x3c, 0x9f, 0xde, 0xe9,
  0x98, 0xba, 0x96, 0x95, 0x6d, 0xa7, 0xf1, 0x8a, 0xfc, 0x0f, 0x10, 0xd0,
  0x1c, 0x20, 0xd6, 0x06, 0x07, 0x59, 0xa5, 0xbc, 0xc9, 0xe9, 0x31, 0x9c,
  0x67, 0x8e, 0xad, 0xc7, 0xcd, 0xd3, 0x7f, 0xd8, 0x76, 0x46, 0x3c, 0xe0,
  0x99, 0xef, 0x43, 0x0b, 0xea, 0x5e, 0xfa, 0xcd, 0xc1, 0x5a, 0xa8, 0xd4,
  0xc4, 0xd9, 0x2b, 0xe4, 0xa7, 0x6e, 0x2d, 0x34, 0xd6, 0x05, 0xbb, 0x10,
  0xfb, 0x93, 0xd0, 0xd6, 0xd6, 0xb3, 0x3c, 0x1b, 0x21, 0x34, 0x16, 0x2a,
  0xc4, 0x5b, 0xea, 0xef, 0x27, 0x32, 0xc6, 0x3c, 0x36, 0x19, 0xfb, 0xc2,
  0x8b, 0xf8, 0x48, 0x6c, 0xcd, 0x2e, 0x64, 0x92, 0x0d, 0x66, 0xf1, 0x94,
  0x1b, 0xe1, 0xdd, 0xce, 0x24, 0xcb, 0x44, 0x2a, 0x22, 0x05, 0xcb, 0xb2,
  0xe5, 0xd2, 0x29, 0xf2, 0xfb, 0xd2, 0xad, 0x4b, 0x5e, 0x31, 0x9e, 0xdc,
  0xf4, 0xc5, 0x08, 0xde, 0x05, 0xda, 0x57, 0x10, 0x4c, 0xb3, 0xfe, 0x4e,
  0xaa, 0xe1, 0xd9, 0x08, 0xdf, 0x5f, 0x66, 0xa7, 0xcb, 0x64, 0xbb, 0x20,
  0x08, 0x48, 0xe6, 0x56, 0x19, 0x57, 0x0b, 0xeb, 0xe0, 0xe6, 0x59, 0xfb,
  0xfa, 0xf5, 0xf1, 0x01, 0x4f, 0x4a, 0xb5, 0x50, 0xd6, 0x5d, 0x01, 0x04,
  0xba, 0xf4, 0x2a, 0xe3, 0xdf, 0xc4, 0xff, 0xa9, 0xe4, 0x24, 0x28, 0xc8,
  0xbd, 0x05, 0xd2, 0xfb, 0x0c, 0x27, 0x0f, 0x24, 0xa0, 0xce, 0xd7, 0x09,
  0x40, 0xb4, 0xc3, 0xd9, 0x52, 0xd9, 0xbf, 0x7f, 0x2e, 0xf0, 0x40, 0x2b,
  0xe3, 0xe5, 0x1a, 0xcf, 0xe5, 0x1d, 0x09, 0xf1, 0xb1, 0xed, 0x02, 0x02,
  0xf8, 0x02, 0xbd, 0x2a, 0x12, 0xeb, 0x4a, 0x1b, 0xe1, 0x1d, 0x12, 0x46,
  0x5b, 0xb5, 0x36, 0x1c, 0xcf, 0x02, 0xdd, 0xfb, 0x43, 0x13, 0x1d, 0xd9,
  0x2f, 0xc6, 0xf4, 0xd1, 0xb7, 0x57, 0x1f, 0xd7, 0xdd, 0xe3, 0x2b, 0x0a,
  0xad, 0x46, 0xf0, 0x19, 0x3f, 0xbc, 0x52, 0xe6, 0xc4, 0x2d, 0x14, 0x41,
  0x5f, 0x05, 0xcd, 0xfb, 0x0b, 0x3e, 0x53, 0xcb, 0xc3, 0xcd, 0xe9, 0xd2,
  0x07, 0xc1, 0xf4, 0x18, 0xa7, 0xde, 0xfb, 0x34, 0xe5, 0x29, 0x0e, 0x17,
  0x26, 0x27, 0x0f, 0x06, 0x49, 0x14, 0xd2, 0x1a, 0xd6, 0xd7, 0x15, 0x33,
  0xd7, 0xb2, 0x07, 0xf1, 0xf8, 0xb5, 0x1b, 0xe3, 0xe9, 0xb5, 0xf1, 0x1c,
  0xfb, 0x08, 0x56, 0x4e, 0xe7, 0x1a, 0xe9, 0x87, 0x4e, 0xef, 0xc9, 0x4c,
  0xff, 0x18, 0xfb, 0x08, 0x52, 0x27, 0x15, 0xba, 0xf1, 0xf3, 0xfd, 0xbf,
  0xd9, 0xb0, 0xe3, 0x15, 0x30, 0xaa, 0x45, 0x15, 0x01, 0xef, 0x95, 0x23,
  0x10, 0x19, 0x2b, 0x03, 0x7f, 0xf3, 0x4f, 0xed, 0xf0, 0xf9, 0xcd, 0xeb,
  0x35, 0x9f, 0x0a, 0x02, 0xf7, 0x03, 0x25, 0xc8, 0x12, 0x0c, 0x0f, 0x19,
  0xf8, 0x35, 0x3d, 0x67, 0x0d, 0x2b, 0x16, 0x45, 0xc4, 0xfa, 0x23, 0x1e,
  0x20, 0x2a, 0xd3, 0xef, 0x22, 0xf6, 0x00, 0x20, 0xcd, 0xda, 0x49, 0x2f,
  0x0c, 0x51, 0x05, 0x3c, 0x15, 0x40, 0xd2, 0xee, 0xf4, 0xe1, 0xfc, 0x25,
  0xb5, 0x1b, 0xba, 0x0f, 0x49, 0x40, 0xe8, 0xeb, 0xee, 0x07, 0x1e, 0xde,
  0x62, 0xbe, 0x01, 0xfc, 0xf0, 0x9f, 0x48, 0x35, 0x4a, 0xee, 0xd7, 0x31,
  0x10, 0xc3, 0xd4, 0x3c, 0xe9, 0x13, 0xdf, 0xc5, 0x1e, 0xea, 0xce, 0x79,
  0xeb, 0xfe, 0xe5, 0x36, 0x3c, 0x17, 0x3e, 0x4f, 0x56, 0xc0, 0xf3, 0xbc,
  0xd7, 0xb5, 0xe6, 0x05, 0xb6, 0xb6, 0xd0, 0xcf, 0x18, 0xc3, 0xf0, 0x7f,
  0xe4, 0x46, 0xdb, 0xd9, 0xcc, 0x13, 0x2f, 0x37, 0x3b, 0x1f, 0x16, 0x09,
  0x05, 0xfb, 0xf9, 0xe7, 0x11, 0x1e, 0xb9, 0x24, 0x0a, 0xca, 0xe7, 0xed,
  0xf2, 0xbc, 0x38, 0xee, 0xd3, 0x24, 0xfe, 0xfa, 0xd0, 0xef, 0xbe, 0x10,
  0x30, 0xcd, 0x2c, 0x21, 0x2d, 0xbd, 0xe0, 0xd4, 0x37, 0x27, 0xc8, 0x23,
  0x02, 0x1f, 0xd8, 0xda, 0xeb, 0x20, 0x2d, 0x0f, 0xb2, 0x1d, 0x46, 0xe5,
  0xcf, 0xe7, 0xd4, 0x31, 0x11, 0x43, 0xe1, 0xf4, 0xf7, 0xfb, 0x26, 0x47,
  0xb4, 0xbc, 0x3f, 0xe0, 0x14, 0x11, 0x11, 0xba, 0x7e, 0xe5, 0xd5, 0x76,
  0xd2, 0xbb, 0x3c, 0x7f, 0x40, 0x25, 0x60, 0xfc, 0x0e, 0x05, 0xef, 0xd4,
  0x08, 0xd7, 0x4c, 0x06, 0x1e, 0xec, 0x4b, 0x79, 0xe3, 0xdf, 0x0b, 0xf1,
  0xfe, 0x1d, 0x03, 0xd4, 0x52, 0xae, 0x3b, 0x12, 0x06, 0xfc, 0x75, 0x5d,
  0xce, 0xa5, 0x4d, 0xda, 0x07, 0xd7, 0xb0, 0xfd, 0x5a, 0x6f, 0x16, 0x15,
  0x23, 0xf8, 0x44, 0x06, 0x0d, 0x39, 0xbd, 0x02, 0x70, 0xf0, 0x1c, 0x4c,
  0x05, 0x06, 0x10, 0x2c, 0xdb, 0x17, 0xad, 0xd9, 0xdf, 0x8c, 0xb7, 0xe9,
  0xfc, 0xf3, 0x09, 0xa5, 0x84, 0x66, 0x36, 0xd4, 0x09, 0xe7, 0x5b, 0xf4,
  0xf8, 0xa5, 0x16, 0xba, 0x1f, 0x08, 0xe3, 0x4d, 0xc4, 0x48, 0xfe, 0x3d,
  0x43, 0xff, 0xf3, 0x9b, 0xe6, 0xfa, 0x09, 0x2f, 0xbd, 0xd5, 0xce, 0x01,
  0x2e, 0xee, 0x19, 0x33, 0x24, 0x12, 0x5a, 0xda, 0x15, 0x44, 0xba, 0xc8,
  0x35, 0x43, 0xd8, 0x50, 0xf1, 0x02, 0x32, 0xb6, 0xd5, 0xfa, 0x3f, 0xec,
  0xdd, 0xa2, 0xe3, 0xe8, 0xf5, 0xe4, 0x04, 0x58, 0xc1, 0xc7, 0x50, 0xd9,
  0xe4, 0x3e, 0xd1, 0xf1, 0x34, 0x5e, 0xf5, 0x02, 0x18, 0x34, 0x55, 0x7f,
  0xf6, 0x38, 0xa4, 0xf2, 0xaa, 0x09, 0x5c, 0x1a, 0x52, 0xdf, 0xea, 0xc9,
  0x47, 0xb1, 0x21, 0x45, 0xf3, 0xb3, 0xd1, 0xdb, 0xd7, 0xf5, 0xc1, 0x35,
  0xea, 0x4b, 0x4d, 0x20, 0x50, 0xcb, 0xc7, 0x26, 0xef, 0xcc, 0x1d, 0xd9,
  0x21, 0xbe, 0x3e, 0xe7, 0xc7, 0xc2, 0x09, 0x2d, 0xbd, 0x18, 0xe2, 0x26,
  0xfd, 0xec, 0x13, 0xfa, 0x35, 0xdf, 0x03, 0x30, 0xe1, 0xb4, 0xe4, 0x10,
  0xf8, 0xf7, 0xc6, 0x5e, 0x7d, 0x07, 0xed, 0xfb, 0x2b, 0xb5, 0x49, 0xff,
  0xef, 0x37, 0xf6, 0x43, 0x01, 0x34, 0xc4, 0x0e, 0xf8, 0x2f, 0xf2, 0x13,
  0x52, 0x1b, 0x27, 0x4b, 0xd7, 0x28, 0x5c, 0x28, 0x37, 0x36, 0xfb, 0x15,
  0xfc, 0xe4, 0xdf, 0xe0, 0xf6, 0xbe, 0x14, 0x58, 0x2b, 0xf8, 0xc1, 0xd7,
  0xe2, 0xc0, 0xd0, 0xf2, 0x35, 0x06, 0x05, 0xf5, 0x2a, 0xcc, 0xc9, 0x7f,
  0x2d, 0x0b, 0x4b, 0xc8, 0x54, 0xf0, 0xee, 0x5b, 0x42, 0xfb, 0xc8, 0x24,
  0x0f, 0xdf, 0x28, 0x2c, 0x0f, 0x28, 0x01, 0x1c, 0x1c, 0xae, 0xf5, 0x56,
  0x10, 0xec, 0x30, 0x1f, 0xde, 0xd0, 0xc9, 0x2f, 0x24, 0xd1, 0x08, 0x35,
  0xfb, 0xe9, 0x08, 0xf8, 0x54, 0x02, 0x2a, 0xc7, 0x03, 0x1f, 0x13, 0x48,
  0xc7, 0x13, 0x21, 0x12, 0xc8, 0x09, 0xf6, 0x3e, 0xe0, 0x06, 0xcd, 0xe1,
  0xcb, 0x2b, 0xdc, 0x00, 0x2f, 0x05, 0x3f, 0x0e, 0x25, 0xed, 0x05, 0x38,
  0x3d, 0xed, 0xca, 0x00, 0x1a, 0x05, 0x18, 0x22, 0xeb, 0xfc, 0x2d, 0x28,
  0xc7, 0x03, 0x16, 0xe3, 0x07, 0x32, 0x37, 0x36, 0x08, 0x10, 0x1d, 0x24,
  0x1c, 0xf8, 0x3f, 0xc1, 0xda, 0xb2, 0x08, 0xcf, 0x65, 0xcb, 0x2a, 0x75,
  0x18, 0xc5, 0xd0, 0x71, 0xc9, 0xc5, 0xce, 0xd2, 0xbf, 0xac, 0x20, 0xd8,
  0x6e, 0x1a, 0xd0, 0xd9, 0x28, 0x43, 0xe7, 0x7f, 0xad, 0x10, 0xb8, 0x0a,
  0xe8, 0xa2, 0xab, 0x19, 0x4b, 0x1a, 0xc7, 0xf6, 0xdf, 0x47, 0x19, 0xd1,
  0xa1, 0xca, 0xe2, 0xfe, 0x55, 0xfc, 0x2d, 0x5d, 0x0d, 0xa0, 0xe6, 0x1c,
  0x3e, 0x5b, 0xf5, 0x45, 0xd8, 0x4f, 0x1b, 0x3d, 0x1f, 0x68, 0x31, 0x0a,
  0x6b, 0x27, 0x18, 0xe2, 0x5b, 0x93, 0x61, 0xf9, 0xb7, 0xd8, 0x06, 0xd5,
  0xd8, 0x44, 0xe1, 0xd2, 0xbf, 0x39, 0xd1, 0x38, 0x37, 0xc6, 0x53, 0xdf,
  0xa7, 0xf4, 0xde, 0xd4, 0xcd, 0xe0, 0x07, 0xda, 0x4c, 0xc5, 0xa6, 0xcf,
  0xf7, 0x34, 0xe0, 0x01, 0xcc, 0x26, 0x8a, 0x22, 0x2d, 0x00, 0xef, 0x9a,
  0x20, 0xc7, 0x0c, 0x40, 0x0b, 0x18, 0xc9, 0xdb, 0x78, 0x1a, 0x52, 0xa6,
  0x61, 0x20, 0xcd, 0x5a, 0x6d, 0x1a, 0x4e, 0xe5, 0xc5, 0x47, 0x6c, 0x40,
  0x9f, 0xac, 0xfb, 0x9f, 0x25, 0xcc, 0x3a, 0x39, 0x0b, 0x1b, 0xc5, 0x2a,
  0x41, 0xa5, 0xf7, 0x58, 0x3c, 0x52, 0x2e, 0x25, 0xfb, 0x49, 0xfc, 0x11,
  0x78, 0x47, 0xf9, 0x34, 0xce, 0xfa, 0x4f, 0x30, 0xf4, 0xc9, 0x4e, 0x01,
  0xb4, 0xbd, 0xfb, 0xaf, 0xd5, 0xcf, 0x1e, 0x43, 0xe6, 0xc9, 0x28, 0xe3,
  0xbe, 0xac, 0x15, 0xbf, 0xbc, 0xc2, 0xc7, 0x02, 0x1c, 0xe2, 0x14, 0x5e,
  0x1b, 0x52, 0x75, 0x3f, 0xab, 0xee, 0x03, 0xb1, 0xd3, 0xe6, 0xb6, 0xed,
  0xbc, 0xea, 0x49, 0x39, 0xc5, 0x07, 0x5a, 0x1e, 0xcd, 0x2a, 0x65, 0x4a,
  0x7f, 0xd3, 0xf1, 0xe1, 0x30, 0xda, 0x27, 0x59, 0x07, 0xd3, 0x55, 0xf5,
  0x0a, 0x1b, 0xf6, 0x20, 0x3b, 0x1a, 0xb3, 0xb2, 0x3d, 0x25, 0x46, 0x15,
  0x0a, 0xe2, 0x49, 0x10, 0xe0, 0xfe, 0x15, 0x1c, 0x00, 0xb2, 0x27, 0xc5,
  0xda, 0x34, 0xe1, 0xf8, 0xd9, 0x7c, 0xca, 0xa7, 0x24, 0xc7, 0x00, 0xef,
  0xb1, 0xc1, 0xd1, 0xda, 0xaf, 0xad, 0x44, 0xe6, 0x73, 0xa2, 0x10, 0xd8,
  0x8c, 0x56, 0x37, 0x48, 0x94, 0xef, 0x57, 0x59, 0x1f, 0x12, 0xca, 0x23,
  0xa7, 0x59, 0x40, 0x6b, 0x2a, 0x4a, 0x88, 0x30, 0x40, 0x9e, 0x0a, 0x37,
  0x0a, 0xda, 0xd6, 0x6b, 0x49, 0x3d, 0xff, 0xf7, 0xa0, 0x12, 0xd0, 0x0f,
  0xac, 0xc6, 0x5b, 0xdf, 0xd3, 0x62, 0x08, 0x42, 0x51, 0x4b, 0xc1, 0xd4,
  0xe8, 0x1a, 0xe8, 0x5f, 0x47, 0xd6, 0x8a, 0x54, 0x3a, 0x48, 0x47, 0x30,
  0x26, 0x0e, 0xfa, 0x01, 0xdd, 0xbd, 0x0e, 0x16, 0xc6, 0x34, 0xcb, 0x58,
  0x67, 0xdd, 0x9b, 0xb0, 0x43, 0xb5, 0x48, 0xd9, 0xcc, 0x08, 0x3a, 0x09,
  0xe4, 0xa5, 0xee, 0xc4, 0x7f, 0x47, 0xda, 0xd8, 0x27, 0xf4, 0xd4, 0xb1,
  0x05, 0xa2, 0x5b, 0xc0, 0x58, 0x60, 0xa4, 0x22, 0xe5, 0x0c, 0x22, 0x56,
  0x06, 0x06, 0x51, 0x25, 0xcb, 0xcf, 0x39, 0x3f, 0x3c, 0xa1, 0x00, 0xf2,
  0xa8, 0xfa, 0xe1, 0xc4, 0x42, 0x41, 0xa4, 0xd2, 0xea, 0xc3, 0x67, 0x99,
  0xf0, 0xf2, 0x14, 0x71, 0x13, 0xca, 0xd1, 0x57, 0xcd, 0xa7, 0x62, 0x40,
  0x99, 0x59, 0xe4, 0x33, 0x05, 0x52, 0xd8, 0x98, 0x19, 0x22, 0x0c, 0xf2,
  0x48, 0xb3, 0xfa, 0x0e, 0x2c, 0xf7, 0x07, 0xbb, 0xb5, 0xd1, 0x1d, 0x1d,
  0xee, 0xda, 0xf4, 0x7f, 0x0d, 0x01, 0xc6, 0xdc, 0xa6, 0xd4, 0x0a, 0x28,
  0x09, 0xa3, 0x13, 0xde, 0xbd, 0xb1, 0x3f, 0xb2, 0x0b, 0x32, 0xc5, 0xba,
  0xe7, 0x50, 0x05, 0x3b, 0xb9, 0x1f, 0x1d, 0x45, 0x39, 0xf1, 0xbf, 0xcb,
  0xe8, 0xbc, 0x6a, 0xc8, 0x2a, 0x45, 0x15, 0xed, 0x14, 0x3a, 0xf3, 0x30,
  0xd3, 0xa0, 0x52, 0x4b, 0x25, 0xff, 0x9e, 0xd2, 0x32, 0x2f, 0x04, 0xe1,
  0x0c, 0x07, 0x11, 0x7f, 0x27, 0x33, 0xf9, 0xe2, 0xe7, 0xff, 0xfd, 0xf5,
  0xd9, 0xea, 0xd8, 0xd6, 0x09, 0x19, 0x02, 0x00, 0xd1, 0xf6, 0x36, 0xdd,
  0x0e, 0xe5, 0xd3, 0x0b, 0x12, 0xf9, 0x4a, 0xfd, 0x44, 0x07, 0xfc, 0x18,
  0xc9, 0xe6, 0x0d, 0x1c, 0xd9, 0x49, 0x21, 0x14, 0xcd, 0xfd, 0xbb, 0x05,
  0xc4, 0x24, 0xc4, 0x3c, 0x45, 0xe2, 0x16, 0xdd, 0x21, 0x21, 0x37, 0x29,
  0x23, 0x3b, 0x2c, 0xf8, 0x2e, 0x08, 0x28, 0x10, 0xe6, 0xdd, 0x1b, 0xe2,
  0xe4, 0x35, 0x4b, 0xd1, 0x31, 0x08, 0x45, 0x27, 0xef, 0xed, 0xce, 0xeb,
  0x50, 0xe7, 0xf6, 0xd5, 0xf5, 0xd4, 0xca, 0x23, 0x12, 0x0e, 0x13, 0xf2,
  0xee, 0xef, 0x14, 0x48, 0xdb, 0x07, 0xd0, 0xe7, 0xd2, 0x11, 0x05, 0x4b,
  0x23, 0xf5, 0x0c, 0xfd, 0x1b, 0x0a, 0xf9, 0xfc, 0xf6, 0xfc, 0xf6, 0x53,
  0x11, 0x1c, 0x36, 0x18, 0x20, 0xd1, 0x16, 0x29, 0x05, 0x4b, 0xe3, 0xdf,
  0x8a, 0xc2, 0xd4, 0xa4, 0xf9, 0xea, 0xe1, 0x16, 0x38, 0x3a, 0x11, 0xae,
  0xfa, 0xe7, 0x10, 0xe6, 0x48, 0x3b, 0xb5, 0xe6, 0x1d, 0xd3, 0x70, 0xc1,
  0x1c, 0x0b, 0x71, 0x1f, 0x53, 0x0d, 0x69, 0x2f, 0x2e, 0xe9, 0xa8, 0xe8,
  0xc5, 0x65, 0x44, 0x05, 0x4d, 0x1f, 0x10, 0xa9, 0xc4, 0xad, 0x2e, 0x5b,
  0x4e, 0x12, 0x63, 0x68, 0xd9, 0xc3, 0xe0, 0x81, 0x66, 0x6c, 0xc6, 0xd6,
  0x42, 0x31, 0x09, 0xf2, 0x06, 0xd1, 0x31, 0x0c, 0xd4, 0x2a, 0xdd, 0xdc,
  0xd5, 0x64, 0xda, 0x4e, 0xca, 0x0e, 0xca, 0x3d, 0x33, 0x68, 0x3e, 0x69,
  0x40, 0x1e, 0x33, 0xd1, 0xd4, 0x2a, 0x5e, 0xcd, 0x78, 0x0e, 0xcd, 0xad,
  0xff, 0x14, 0x5c, 0xea, 0x0e, 0x0b, 0x73, 0x18, 0xe2, 0xc5, 0x1a, 0x13,
  0x64, 0x12, 0xf5, 0xd4, 0xfb, 0x41, 0x32, 0x59, 0x5e, 0xc4, 0x17, 0xb1,
  0x36, 0xe1, 0x22, 0xfa, 0x1f, 0xf6, 0x2a, 0xa4, 0x9d, 0x1b, 0xb7, 0x41,
  0xfc, 0xdb, 0x0c, 0xd7, 0x0d, 0x16, 0x4b, 0xca, 0xf9, 0xe5, 0xc8, 0x5c,
  0x5e, 0x16, 0x0a, 0x2f, 0x08, 0x15, 0x03, 0xc2, 0x4e, 0x22, 0xc6, 0xfc,
  0x00, 0x2c, 0xc7, 0xa3, 0x1e, 0x16, 0xdf, 0xf9, 0x32, 0xf2, 0xba, 0xc6,
  0xdc, 0x0d, 0xfa, 0x2e, 0xdd, 0x18, 0x18, 0x7f, 0x37, 0x27, 0xb8, 0x62,
  0x27, 0xf8, 0x28, 0x45, 0x1a, 0xf9, 0x41, 0x0b, 0x47, 0xd2, 0x1d, 0x42,
  0xc8, 0x2a, 0xd1, 0xc0, 0xbd, 0xfe, 0x5a, 0x0c, 0x23, 0x14, 0xf9, 0xc3,
  0x06, 0x0b, 0x68, 0xfe, 0x08, 0x23, 0x31, 0x4e, 0x15, 0x10, 0xab, 0x15,
  0xf7, 0xcd, 0x22, 0xba, 0x46, 0x36, 0xd6, 0x14, 0x99, 0x23, 0xf8, 0x3c,
  0xcf, 0x0d, 0xfe, 0x18, 0xf6, 0xf5, 0x17, 0x2d, 0xdd, 0x18, 0x22, 0xd8,
  0x11, 0xdc, 0xd8, 0x65, 0xe3, 0x01, 0x1f, 0x2d, 0x1f, 0x19, 0xfd, 0x1c,
  0xf7, 0x4b, 0xca, 0x6a, 0x56, 0x26, 0xd8, 0x1f, 0xd6, 0x3b, 0x5f, 0x5e,
  0xb1, 0xea, 0xda, 0xce, 0xbe, 0xdd, 0x00, 0xf9, 0xd9, 0xff, 0x15, 0x3c,
  0x11, 0xc6, 0xc7, 0xc9, 0x2d, 0x13, 0x35, 0x14, 0x67, 0xe2, 0xdd, 0xfa,
  0x75, 0xef, 0x41, 0x31, 0xb9, 0xfa, 0x43, 0x2f, 0xb2, 0xc0, 0xe9, 0x3b,
  0xe6, 0x38, 0x03, 0xd5, 0x52, 0xf0, 0xdf, 0xe9, 0xd1, 0x2d, 0xc7, 0x54,
  0x2a, 0x0f, 0x0f, 0xcd, 0x0c, 0x3e, 0xe1, 0x01, 0x7f, 0xe5, 0x35, 0xc1,
  0xc8, 0xfd, 0x1b, 0x07, 0xe1, 0xc4, 0x17, 0xc2, 0x37, 0x23, 0x17, 0xc6,
  0x3f, 0xc3, 0x22, 0x30, 0xd7, 0x29, 0xd2, 0xd2, 0x53, 0x3d, 0xfc, 0x23,
  0x37, 0xc6, 0xc0, 0x2d, 0x44, 0xb3, 0x2a, 0x0d, 0xc1, 0xba, 0x0b, 0x1c,
  0xac, 0xd6, 0x22, 0xfa, 0xfa, 0xe0, 0xab, 0xf6, 0xde, 0x32, 0x2b, 0x2f,
  0xc4, 0x0f, 0x03, 0x2d, 0x00, 0x10, 0xcc, 0xda, 0x5a, 0xea, 0xc8, 0xd8,
  0x8b, 0x3e, 0x2c, 0x00, 0xb6, 0xef, 0x0c, 0xda, 0xfc, 0xe9, 0xf3, 0xcb,
  0x4b, 0x20, 0xe5, 0xe9, 0x4d, 0x27, 0x32, 0x01, 0xe0, 0xd7, 0x53, 0xc9,
  0x04, 0x05, 0x24, 0xc8, 0xe3, 0x40, 0xdc, 0x24, 0x00, 0xd1, 0x1f, 0x0e,
  0x0c, 0xca, 0xc1, 0xd2, 0x1c, 0x96, 0x0f, 0x00, 0x55, 0xf8, 0xc5, 0x4b,
  0xaf, 0x81, 0x48, 0xce, 0xf2, 0x55, 0xb7, 0x27, 0x22, 0x47, 0xb8, 0x50,
  0xf6, 0xc4, 0x1a, 0x18, 0x38, 0x9c, 0xd7, 0xce, 0x16, 0xf9, 0xe4, 0xf8,
  0x0e, 0x22, 0xf1, 0x1b, 0x16, 0xd2, 0x06, 0x04, 0x5f, 0xca, 0xa8, 0x71,
  0x0a, 0x23, 0xcd, 0x1c, 0xda, 0xa4, 0xc7, 0x41, 0x3a, 0xe9, 0xba, 0x9f,
  0x76, 0x57, 0xb9, 0x32, 0xb4, 0xd7, 0xb8, 0x1f, 0x31, 0x13, 0x50, 0xa7,
  0xd8, 0xea, 0x18, 0xec, 0x04, 0x1a, 0x42, 0xba, 0x12, 0x33, 0x33, 0xc1,
  0x46, 0x4a, 0x2a, 0x48, 0x33, 0x44, 0xce, 0x62, 0x2f, 0x09, 0x19, 0x27,
  0x3b, 0xd2, 0x1a, 0xf3, 0x23, 0x04, 0xd6, 0x32, 0xe1, 0x1c, 0x0e, 0xca,
  0x54, 0x27, 0x3a, 0x09, 0x43, 0xdd, 0x38, 0xe6, 0x04, 0x2a, 0xf5, 0xb7,
  0xfd, 0xbc, 0xd2, 0x4e, 0x9d, 0x09, 0xbf, 0x22, 0x0c, 0xc4, 0xba, 0xf1,
  0xe2, 0x18, 0xe4, 0xe3, 0xc7, 0x12, 0x11, 0x4c, 0xec, 0x27, 0x15, 0xd2,
  0xdf, 0x1b, 0x94, 0x0e, 0xd8, 0xe6, 0x45, 0x42, 0x47, 0xdf, 0x07, 0x0b,
  0xc1, 0xc8, 0xff, 0x23, 0xda, 0xff, 0x27, 0xe8, 0xbb, 0xf7, 0x33, 0xf6,
  0x05, 0xb4, 0x3c, 0xcc, 0x81, 0x2d, 0x25, 0x2d, 0xb5, 0x28, 0x0a, 0xf0,
  0x57, 0x21, 0xe7, 0x40, 0x22, 0xde, 0x21, 0xf4, 0x3b, 0x05, 0xc7, 0x8d,
  0xc1, 0x05, 0x4b, 0x1c, 0x20, 0x3f, 0xfa, 0xd9, 0x3a, 0xf1, 0xbe, 0xc2,
  0xa2, 0xfc, 0xea, 0x21, 0x29, 0xc2, 0xd4, 0xdf, 0xd9, 0xf9, 0x3e, 0xc5,
  0x27, 0xcd, 0x24, 0x63, 0x32, 0xfe, 0xe2, 0x1d, 0x47, 0xd3, 0x48, 0xf6,
  0xb3, 0xb4, 0x0c, 0x41, 0xca, 0xd5, 0x27, 0x06, 0xdc, 0x32, 0x40, 0x48,
  0xce, 0xb4, 0xe9, 0x37, 0x18, 0x0d, 0xf5, 0x43, 0xcd, 0xf3, 0xa5, 0x3f,
  0xed, 0xda, 0x37, 0xfa, 0x25, 0x22, 0x04, 0xdb, 0xeb, 0xdb, 0xc2, 0xe9,
  0xc0, 0x22, 0x3f, 0x04, 0x35, 0xd2, 0x1c, 0x01, 0xf2, 0xc7, 0x26, 0xc3,
  0x1d, 0x04, 0x0a, 0xfc, 0x3a, 0x01, 0xf2, 0xff, 0xc0, 0xd0, 0xbc, 0x44,
  0x2b, 0x1e, 0x37, 0x44, 0xf5, 0xfc, 0x19, 0x11, 0x3f, 0xc6, 0x10, 0x00,
  0xfa, 0x40, 0x16, 0x06, 0x33, 0xb8, 0xd3, 0xba, 0x7f, 0xd9, 0x32, 0xc7,
  0x3a, 0x72, 0xcc, 0x65, 0xd9, 0x3c, 0xc1, 0x20, 0x42, 0x14, 0x0c, 0x2f,
  0x28, 0x39, 0x1a, 0x23, 0xf1, 0xf9, 0x15, 0xd9, 0x17, 0x3a, 0xda, 0x49,
  0x1b, 0xa5, 0xc2, 0x3c, 0xfc, 0xd9, 0x0e, 0xdc, 0x56, 0x6b, 0xbd, 0x57,
  0x13, 0xfc, 0xfd, 0xff, 0x12, 0x12, 0x27, 0x78, 0xd3, 0xf0, 0xd5, 0xb6,
  0x05, 0xcf, 0x45, 0xed, 0xe6, 0xc7, 0x32, 0x5c, 0xfd, 0x45, 0xff, 0xbf,
  0x26, 0x11, 0x5d, 0x91, 0xc0, 0xdb, 0x21, 0xba, 0x7c, 0x21, 0xff, 0x46,
  0xde, 0xf6, 0x23, 0x2c, 0x97, 0xac, 0xfc, 0x0b, 0xc0, 0xd1, 0x3e, 0x28,
  0xfd, 0xd7, 0xa7, 0x5e, 0x23, 0x17, 0x40, 0x18, 0x06, 0xbc, 0x26, 0x1c,
  0x0a, 0xff, 0x2a, 0xd3, 0x72, 0x14, 0x9c, 0x15, 0x4d, 0x81, 0xd8, 0xf2,
  0x44, 0x38, 0xec, 0x3f, 0x19, 0xbd, 0x40, 0xfb, 0xd6, 0x3c, 0x18, 0xf9,
  0x0d, 0xc6, 0x96, 0xcf, 0xf2, 0xfd, 0x44, 0x24, 0x47, 0x67, 0x83, 0xfe,
  0x60, 0xc6, 0x06, 0xbd, 0x9d, 0xfc, 0x51, 0x97, 0x32, 0xb7, 0xea, 0x4a,
  0x21, 0x12, 0xff, 0xfb, 0xb8, 0x56, 0x5e, 0xa9, 0xa8, 0xb5, 0xde, 0xcf,
  0x4b, 0xca, 0xc2, 0x16, 0x0a, 0xe6, 0x18, 0x4b, 0x17, 0x1d, 0x30, 0xa7,
  0xdf, 0x3d, 0x0e, 0xf3, 0xfa, 0x20, 0xd3, 0x4c, 0xfc, 0x1e, 0x2b, 0xb9,
  0xd7, 0xfb, 0x26, 0x11, 0xdb, 0x2c, 0xca, 0xe1, 0xfc, 0x0c, 0x74, 0xc7,
  0x9e, 0x08, 0x29, 0x29, 0x11, 0x0e, 0xe6, 0xdc, 0xc8, 0xc2, 0x43, 0xae,
  0xac, 0xf3, 0x31, 0xac, 0x17, 0x1d, 0xc0, 0xee, 0x20, 0x14, 0x2b, 0x9f,
  0x33, 0x3d, 0xef, 0x39, 0xed, 0x38, 0xa6, 0x31, 0xf2, 0x29, 0x35, 0xfc,
  0xbc, 0xad, 0x31, 0xed, 0x1f, 0xa2, 0xb2, 0x15, 0x1e, 0xb0, 0xfa, 0xe4,
  0xc1, 0xb2, 0x11, 0xfe, 0x81, 0xed, 0x57, 0xe9, 0xd0, 0xf0, 0x21, 0xba,
  0xbd, 0x50, 0xd1, 0x9b, 0xbb, 0xf3, 0x39, 0xba, 0xf1, 0x0d, 0x24, 0xe1,
  0xba, 0x52, 0x24, 0xd8, 0x0b, 0xc8, 0x14, 0x0d, 0xf3, 0xc7, 0xf4, 0x05,
  0x88, 0xfd, 0x4e, 0xa3, 0x06, 0x2e, 0xd9, 0xbd, 0x35, 0xdb, 0xe5, 0xf2,
  0xbc, 0xce, 0x05, 0x43, 0x81, 0x3c, 0x9e, 0xb4, 0xd0, 0xc7, 0x17, 0x0c,
  0xea, 0x42, 0x15, 0x3c, 0xac, 0x30, 0xd8, 0x5b, 0xe6, 0xc1, 0x55, 0x15,
  0xe2, 0xf6, 0x12, 0xf2, 0x39, 0x25, 0xca, 0x48, 0xf1, 0x57, 0xb8, 0x1a,
  0xc2, 0xd6, 0xde, 0x31, 0x17, 0x48, 0xe4, 0xf1, 0xc3, 0x3f, 0x0a, 0xb2,
  0x1e, 0xff, 0x20, 0xfe, 0x11, 0xe5, 0x18, 0x45, 0x31, 0x24, 0x97, 0xbe,
  0x0c, 0xed, 0x2b, 0x4f, 0xcc, 0xcf, 0xbd, 0x4a, 0xe7, 0xa2, 0x3f, 0x15,
  0xdd, 0x2a, 0x58, 0xd9, 0x16, 0xb2, 0x96, 0x27, 0xf2, 0x1b, 0xd8, 0x2b,
  0x7f, 0x52, 0xb5, 0x3b, 0xf4, 0x02, 0xff, 0xda, 0x4b, 0x0f, 0x3e, 0x1f,
  0x2d, 0xdf, 0x53, 0x22, 0x65, 0xeb, 0xcc, 0x20, 0x1b, 0x2f, 0x58, 0xcd,
  0xf0, 0xb9, 0xb5, 0x34, 0x0b, 0x27, 0xe5, 0x75, 0x2b, 0x0f, 0x03, 0x47,
  0xde, 0x15, 0x09, 0xfb, 0xe7, 0x0b, 0xf1, 0x89, 0x20, 0xdf, 0xa3, 0x52,
  0x72, 0xd8, 0x03, 0x1d, 0xe0, 0x31, 0x7f, 0x37, 0xec, 0xe0, 0x3c, 0x46,
  0x1a, 0xd8, 0x3d, 0xac, 0x03, 0xa9, 0xd3, 0xab, 0x13, 0x32, 0x06, 0xcd,
  0x0d, 0xc2, 0x54, 0xe2, 0x04, 0x48, 0xea, 0x2d, 0x3c, 0xf0, 0x9f, 0xf0,
  0xae, 0xea, 0x1c, 0x20, 0xba, 0x46, 0x59, 0x12, 0xe0, 0x09, 0x2f, 0xd4,
  0x35, 0xe4, 0x3e, 0xa9, 0x10, 0x09, 0xcf, 0x5d, 0x3c, 0xff, 0x0c, 0xf2,
  0xc1, 0x40, 0xc4, 0x02, 0x40, 0x1b, 0x3b, 0x20, 0x1d, 0xd8, 0x33, 0x50,
  0x98, 0xcb, 0x3f, 0xef, 0x4e, 0x34, 0xd7, 0x07, 0x0b, 0xf1, 0x4b, 0x09,
  0xa6, 0xb2, 0x4d, 0x0d, 0x1b, 0xef, 0x15, 0xb2, 0xe7, 0x48, 0x2f, 0x07,
  0x18, 0xdb, 0x06, 0xd6, 0xd9, 0x95, 0x7b, 0x1c, 0xa0, 0x58, 0xf2, 0x32,
  0x43, 0xc7, 0x39, 0xc8, 0x9f, 0x29, 0x27, 0x15, 0xc5, 0xc3, 0x15, 0xdd,
  0xc1, 0x54, 0x2d, 0x09, 0x35, 0x56, 0xf3, 0x38, 0x1d, 0xef, 0x21, 0x27,
  0x39, 0x14, 0x0f, 0x24, 0xf7, 0x22, 0x2d, 0xcb, 0x3c, 0xc3, 0xb7, 0x14,
  0x60, 0xd1, 0xab, 0x25, 0x90, 0xc3, 0xb6, 0x46, 0x06, 0x20, 0x07, 0xd0,
  0xce, 0xb1, 0x8a, 0x79, 0xde, 0xd3, 0x88, 0xf1, 0x40, 0x0a, 0x3f, 0x50,
  0x2c, 0xfa, 0x3c, 0x27, 0x32, 0xf1, 0xb9, 0xf2, 0x05, 0xb0, 0xb4, 0x51,
  0x99, 0x31, 0xfb, 0x59, 0x04, 0xa3, 0xd2, 0xcb, 0x3f, 0xd9, 0xd7, 0x11,
  0x11, 0xea, 0x36, 0xb9, 0xfc, 0xba, 0x01, 0xf9, 0x2d, 0x4e, 0xd1, 0xc7,
  0x44, 0xec, 0x1a, 0x33, 0xf9, 0x13, 0x5d, 0xb1, 0xb1, 0x0e, 0xa1, 0x52,
  0xcc, 0x55, 0x11, 0x17, 0xca, 0xdd, 0xfc, 0x38, 0xe3, 0x28, 0xf7, 0x18,
  0x0f, 0x3e, 0x3b, 0xaf, 0xd5, 0x4e, 0xa0, 0x9e, 0xea, 0x35, 0x07, 0x05,
  0x7f, 0x5f, 0x29, 0xaa, 0xe5, 0x11, 0x17, 0x2c, 0x29, 0x53, 0x53, 0xec,
  0xd3, 0xc5, 0xb7, 0xfa, 0x4e, 0x00, 0x0f, 0xe1, 0xc2, 0xf9, 0x3e, 0xdf,
  0xf3, 0xf8, 0xe4, 0x0e, 0x49, 0xdf, 0xc2, 0xe6, 0x60, 0xcb, 0x5b, 0xbc,
  0xf3, 0xb6, 0xcd, 0x71, 0x5d, 0x0b, 0x0a, 0xbb, 0xfd, 0x04, 0x33, 0x03,
  0x12, 0x18, 0x1c, 0x01, 0xe9, 0x45, 0xc2, 0x22, 0x21, 0xd7, 0xac, 0xd4,
  0x41, 0xca, 0x32, 0xdc, 0xe1, 0x53, 0x28, 0x05, 0x1e, 0xc4, 0xea, 0x2d,
  0x17, 0x2d, 0x76, 0x12, 0x72, 0xea, 0xdd, 0xc1, 0x7b, 0x0c, 0xc6, 0xdd,
  0xbe, 0xf3, 0xd4, 0x16, 0x1d, 0xad, 0x32, 0xca, 0x2f, 0x11, 0xe5, 0xf3,
  0xfd, 0xb5, 0x21, 0xf5, 0x1e, 0x0d, 0xfc, 0x5b, 0xcb, 0xf8, 0xf4, 0x06,
  0x7f, 0xc0, 0xf2, 0xf1, 0x71, 0x1f, 0x38, 0x39, 0xec, 0xc7, 0xc4, 0x51,
  0x01, 0x14, 0xc8, 0xa5, 0xcf, 0x32, 0x9e, 0x04, 0x9d, 0xc0, 0x07, 0x47,
  0x08, 0x08, 0x31, 0x3b, 0x49, 0x19, 0x55, 0xeb, 0x9a, 0x97, 0x07, 0xe1,
  0x17, 0x28, 0x48, 0x1d, 0x48, 0x49, 0x13, 0xeb, 0xb2, 0xc6, 0xea, 0xfb,
  0xea, 0xc3, 0xe9, 0xba, 0x55, 0xf7, 0xdf, 0xef, 0xc1, 0xd9, 0x2f, 0xbf,
  0xec, 0xa4, 0xce, 0x43, 0x1c, 0xdc, 0xae, 0x90, 0x56, 0xea, 0xc9, 0x3d,
  0x17, 0x57, 0xff, 0x30, 0xc7, 0xb5, 0x1b, 0x41, 0xff, 0xe5, 0xaa, 0x45,
  0x3e, 0x16, 0x48, 0x94, 0x37, 0x21, 0xe0, 0x4c, 0xaf, 0xd7, 0x96, 0xe5,
  0xe0, 0x0a, 0x52, 0xd0, 0xd8, 0x88, 0x09, 0x29, 0x09, 0x40, 0xa9, 0xa3,
  0xde, 0xd2, 0xd3, 0x43, 0x26, 0x4a, 0x6c, 0xb0, 0x62, 0xf5, 0x64, 0x17,
  0xd3, 0xb4, 0x1c, 0x9f, 0x4f, 0x2b, 0xce, 0x19, 0x29, 0x12, 0xe9, 0xf8,
  0x50, 0xd7, 0x2c, 0x5d, 0xfd, 0xdd, 0xf8, 0xe9, 0xcd, 0xcb, 0x5a, 0xd0,
  0x20, 0x4f, 0x18, 0xd5, 0x7f, 0xb0, 0x44, 0xbc, 0xa6, 0xdc, 0x9b, 0xac,
  0x01, 0xfa, 0x1a, 0xf3, 0x2b, 0x57, 0xc9, 0x1a, 0x40, 0x02, 0xea, 0x24,
  0xef, 0x02, 0x52, 0x2a, 0xd3, 0xde, 0xb3, 0x16, 0xdd, 0xf9, 0xe8, 0x0e,
  0xf1, 0xb3, 0xee, 0x70, 0xfb, 0xdd, 0x12, 0x38, 0x3a, 0x27, 0x45, 0x2d,
  0x7f, 0x3a, 0x1f, 0x48, 0x00, 0xfe, 0x24, 0xd5, 0xf8, 0xe8, 0x0c, 0x3a,
  0xfe, 0xec, 0xd8, 0xeb, 0x07, 0xd7, 0xe3, 0x3e, 0x2f, 0xe3, 0xdd, 0x3e,
  0x1f, 0x09, 0x17, 0x3d, 0x25, 0xf6, 0x33, 0x38, 0x6c, 0x10, 0x0b, 0x55,
  0x40, 0xcf, 0x33, 0x17, 0x05, 0x2a, 0x32, 0x49, 0xf3, 0x22, 0x14, 0x21,
  0xe0, 0xfb, 0xf2, 0x33, 0x16, 0xf5, 0x36, 0xfe, 0xe4, 0xd0, 0xfa, 0x3f,
  0xd7, 0xe9, 0x24, 0xe1, 0x01, 0x08, 0x27, 0x41, 0x31, 0x1c, 0xe6, 0x2b,
  0xf7, 0x2a, 0x5e, 0x39, 0xd6, 0x1c, 0x0e, 0xe9, 0x07, 0xdd, 0xf4, 0x08,
  0x2b, 0x12, 0xd5, 0xe6, 0x0d, 0xe9, 0xdd, 0x1c, 0x81, 0xe1, 0x3e, 0x3d,
  0x3b, 0x3c, 0xc6, 0xf4, 0x97, 0xea, 0x32, 0xd0, 0x0f, 0x27, 0xb7, 0xd4,
  0x07, 0x2d, 0xb8, 0x10, 0xea, 0x0c, 0xa5, 0x6f, 0x52, 0xc2, 0xc5, 0x38,
  0xdb, 0xc0, 0x64, 0x8a, 0xfc, 0xa0, 0x31, 0x1a, 0x03, 0xc0, 0x1c, 0x3d,
  0x14, 0x10, 0x14, 0x31, 0xbf, 0x27, 0xd8, 0x95, 0x24, 0x55, 0xf6, 0xcf,
  0x9c, 0xe0, 0xf1, 0xba, 0x2e, 0xff, 0xaa, 0x70, 0x16, 0xa9, 0xb9, 0x48,
  0xcd, 0x0c, 0x3a, 0x90, 0xf1, 0x5b, 0x47, 0x62, 0x92, 0xef, 0x0c, 0xca,
  0xc8, 0xd4, 0x4d, 0xe1, 0xb3, 0xe0, 0x03, 0x13, 0x01, 0x4a, 0x0e, 0x6c,
  0xbf, 0xd7, 0x11, 0x5d, 0xd2, 0xb0, 0xe1, 0xbc, 0xda, 0x0f, 0x00, 0xc6,
  0xe1, 0xfe, 0x11, 0xcc, 0xcf, 0x5f, 0x41, 0x95, 0x58, 0x31, 0xdd, 0xc9,
  0x22, 0x8c, 0xb2, 0x9e, 0x60, 0x0c, 0x60, 0xc8, 0xdf, 0x0f, 0x5c, 0x19,
  0x00, 0x56, 0x3f, 0xc4, 0x6b, 0xfb, 0x2e, 0xcc, 0x6d, 0x6f, 0xbc, 0x3b,
  0x2c, 0x21, 0x46, 0x1a, 0xd2, 0xe2, 0xcd, 0x37, 0x28, 0x76, 0x10, 0xbc,
  0xa1, 0x0d, 0x11, 0x3a, 0xcb, 0x14, 0x1e, 0x23, 0x64, 0xf4, 0xe8, 0x27,
  0xf4, 0xe3, 0x48, 0xa0, 0xa0, 0x35, 0x9b, 0x53, 0x12, 0x68, 0x3a, 0xec,
  0x0c, 0xea, 0xb3, 0x0e, 0x35, 0x4b, 0xfc, 0xed, 0x9e, 0xb9, 0x29, 0x7f,
  0xe2, 0xf2, 0x42, 0xa4, 0xdc, 0xb5, 0xd8, 0xe3, 0x38, 0xcf, 0x1f, 0x3c,
  0xcb, 0xe4, 0x47, 0xd1, 0x08, 0x35, 0xcf, 0x17, 0xc0, 0x17, 0xf4, 0x15,
  0xde, 0x0a, 0x43, 0xb1, 0xc4, 0xdb, 0xbf, 0x14, 0x36, 0x1c, 0x2c, 0xd8,
  0xe0, 0x04, 0xaa, 0x13, 0x1e, 0xed, 0xdb, 0x05, 0x13, 0x0d, 0xe7, 0xf1,
  0xfa, 0xc4, 0x2b, 0x00, 0x44, 0xf5, 0x8a, 0x0d, 0x22, 0xbc, 0x3b, 0x36,
  0xf4, 0xb2, 0x3d, 0x46, 0x97, 0x09, 0x1d, 0xd8, 0x3e, 0xd6, 0xeb, 0xfa,
  0x3c, 0x16, 0x4f, 0x12, 0xc8, 0xda, 0x17, 0x3a, 0xd5, 0xb5, 0x13, 0xb4,
  0xfb, 0x21, 0x26, 0xb6, 0x94, 0x3a, 0x10, 0x4e, 0xf4, 0xaa, 0xfb, 0x38,
  0xeb, 0xff, 0xba, 0xdf, 0x45, 0x99, 0x03, 0xe2, 0x15, 0xcc, 0x07, 0xe4,
  0x4d, 0xf8, 0x32, 0x77, 0x7d, 0x3a, 0x07, 0xd9, 0xb4, 0xc1, 0x7f, 0xbc,
  0xfc, 0xff, 0x13, 0xe7, 0xed, 0xbc, 0x98, 0xf4, 0xdc, 0xb7, 0xa7, 0xc4,
  0x78, 0x27, 0xf2, 0xff, 0x03, 0x64, 0x0c, 0x4d, 0xfa, 0x1f, 0xc3, 0xe2,
  0x3a, 0xfc, 0x92, 0x1b, 0xe1, 0x52, 0x17, 0xa9, 0xe5, 0xa9, 0x2b, 0x03,
  0x3c, 0x46, 0x50, 0xfb, 0x65, 0x18, 0xdc, 0x58, 0x77, 0xdd, 0xbd, 0xde,
  0x54, 0x11, 0x11, 0x16, 0x47, 0x1e, 0xf3, 0xd1, 0xbf, 0x49, 0xe3, 0xf5,
  0x2a, 0xa3, 0x9b, 0xe9, 0x5a, 0x23, 0x1a, 0xf8, 0x42, 0xa4, 0x1a, 0xff,
  0xc5, 0xa0, 0xce, 0xab, 0xd6, 0xf5, 0x27, 0x0c, 0x3d, 0x4d, 0x2b, 0xc1,
  0x9d, 0x03, 0x5c, 0x34, 0x36, 0xb5, 0x20, 0x12, 0xd4, 0xc3, 0x17, 0x4e,
  0xe1, 0x1d, 0x54, 0xf2, 0x50, 0xdd, 0xf3, 0x2d, 0x72, 0x02, 0xd3, 0xc4,
  0x3c, 0xfd, 0x05, 0xdd, 0xc1, 0x3f, 0xc8, 0xd8, 0x67, 0x98, 0x28, 0xc6,
  0xbe, 0x08, 0xef, 0x06, 0xb9, 0x30, 0xce, 0xc4, 0xd3, 0x62, 0x0c, 0xc1,
  0xe5, 0x38, 0xcd, 0x34, 0x62, 0x06, 0x08, 0xd3, 0x08, 0xa1, 0xbd, 0x39,
  0xde, 0x29, 0xef, 0xe2, 0xa9, 0xaa, 0xc7, 0x05, 0x11, 0xa4, 0x11, 0x65,
  0x57, 0x7f, 0xc9, 0x2c, 0xcf, 0xd0, 0x19, 0xc2, 0x36, 0xf7, 0xdf, 0x71,
  0x59, 0x2f, 0x5c, 0xc8, 0xc3, 0xe4, 0xc6, 0xf5, 0x04, 0xb0, 0x55, 0x9a,
  0x9a, 0x08, 0xbd, 0x08, 0x27, 0x06, 0x15, 0x3e, 0x42, 0x45, 0xf2, 0x3e,
  0xec, 0xb9, 0x96, 0x40, 0x4f, 0x2b, 0xf0, 0x25, 0x20, 0x9a, 0xae, 0xdc,
  0x45, 0x07, 0xe6, 0x9f, 0xd6, 0x6c, 0xbc, 0xe0, 0x3e, 0x96, 0x4e, 0x94,
  0xf6, 0x4e, 0xfa, 0xf8, 0x34, 0xb7, 0xfe, 0x56, 0xdf, 0xcb, 0x24, 0x9a,
  0xcb, 0x02, 0x29, 0xbe, 0x1f, 0xce, 0x4a, 0x4a, 0xc5, 0xe8, 0x1f, 0xad,
  0xc1, 0x7f, 0xf5, 0x05, 0xf4, 0x2d, 0xfb, 0xad, 0xd6, 0x52, 0x46, 0xd2,
  0xe3, 0x6f, 0xd4, 0xdb, 0x20, 0xd8, 0xed, 0xc2, 0xf1, 0xd2, 0xe2, 0xf0,
  0xe9, 0xe4, 0x17, 0xf7, 0xc0, 0xc0, 0xf6, 0xb1, 0x13, 0xba, 0xb2, 0xe1,
  0x28, 0xba, 0x39, 0xea, 0xce, 0x38, 0x00, 0x23, 0x0f, 0x0e, 0x02, 0x31,
  0x03, 0xd1, 0xe3, 0xd1, 0xff, 0x03, 0xbe, 0xe6, 0x07, 0xf2, 0xb5, 0x19,
  0x16, 0xee, 0xfc, 0xf3, 0x31, 0x01, 0xbc, 0xd3, 0x15, 0xad, 0x47, 0xe7,
  0xb6, 0xf3, 0x39, 0x3b, 0x10, 0x72, 0x40, 0xf7, 0xee, 0xd7, 0x0d, 0x0b,
  0x15, 0xdf, 0x15, 0xdb, 0x5d, 0x0f, 0x2e, 0xef, 0x33, 0x03, 0x24, 0x0c,
  0x40, 0x2c, 0x4e, 0xfe, 0x3c, 0x0f, 0x2b, 0xe2, 0xf7, 0xc8, 0x29, 0x0d,
  0xd0, 0xf7, 0x2d, 0xe9, 0x14, 0x31, 0x11, 0xdf, 0x0e, 0xf7, 0xe5, 0x19,
  0x0b, 0xcf, 0x0a, 0xe6, 0x11, 0xd3, 0xc2, 0x7f, 0x13, 0x32, 0xdf, 0x0e,
  0x21, 0x1f, 0xf1, 0x2f, 0xf3, 0xfd, 0xfb, 0xd3, 0x23, 0x0a, 0x14, 0x43,
  0x09, 0x14, 0x13, 0xf8, 0x0e, 0xd6, 0xd0, 0xd6, 0x22, 0xcf, 0x12, 0x37,
  0x29, 0xf2, 0x1f, 0x0a, 0xff, 0xec, 0xff, 0x04, 0x04, 0xc6, 0x0a, 0x24,
  0x4c, 0x00, 0xf7, 0x0f, 0x05, 0xd8, 0x37, 0xea, 0x22, 0xe9, 0xf9, 0xf2,
  0xd1, 0x21, 0xd9, 0xf8, 0x01, 0xc6, 0x0f, 0x07, 0xf3, 0x0d, 0xc6, 0x53,
  0xe3, 0x20, 0xf4, 0x34, 0x05, 0xe6, 0x1f, 0x07, 0x0b, 0x0d, 0xcd, 0xe4,
  0xfd, 0x10, 0x2f, 0xdd, 0xd9, 0xcf, 0xeb, 0xfb, 0x10, 0xce, 0x10, 0xe2,
  0x1a, 0xba, 0x02, 0x36, 0x04, 0xd3, 0xed, 0x42, 0x2d, 0x19, 0x01, 0x36,
  0xe4, 0x49, 0xb7, 0xc2, 0xf5, 0x03, 0xb7, 0xae, 0xd5, 0xf0, 0xd8, 0x36,
  0x35, 0xc1, 0x19, 0x8e, 0x54, 0x03, 0x0b, 0xd5, 0xe6, 0x1a, 0x54, 0x6d,
  0xf8, 0x00, 0x2f, 0x14, 0xc3, 0x45, 0x43, 0xc9, 0x9b, 0x5b, 0xc3, 0x50,
  0x22, 0x42, 0x08, 0x27, 0x3a, 0x2c, 0x40, 0x31, 0xdc, 0x26, 0x4a, 0xfd,
  0x03, 0x33, 0x33, 0x5b, 0xe4, 0x54, 0xc9, 0x5c, 0xb7, 0xcf, 0xd4, 0xc0,
  0xb7, 0x8c, 0xb1, 0x2d, 0x7f, 0x05, 0x17, 0x93, 0xd4, 0xc6, 0xab, 0xcd,
  0xd3, 0x3b, 0xb8, 0x9e, 0xd2, 0xa1, 0xb3, 0x2b, 0x31, 0xd7, 0xf9, 0x13,
  0x1c, 0xb9, 0x24, 0x29, 0x60, 0x9e, 0x3d, 0x30, 0x96, 0x6f, 0x1f, 0x18,
  0xd7, 0xc9, 0x47, 0xa4, 0xb2, 0xcb, 0xca, 0x44, 0xf0, 0xfc, 0x14, 0xf0,
  0x14, 0x4c, 0xc8, 0xfb, 0x27, 0x08, 0x3d, 0xc9, 0x5d, 0xb1, 0xfc, 0xea,
  0x69, 0x2f, 0xd5, 0x32, 0x3d, 0x35, 0x56, 0x30, 0xeb, 0xe7, 0x02, 0x0c,
  0x7f, 0xe0, 0xb9, 0xe8, 0xe9, 0xba, 0x2e, 0xc9, 0xc3, 0xdd, 0xce, 0x2a,
  0xc3, 0xe7, 0xcf, 0x13, 0x25, 0x16, 0xc0, 0x44, 0x35, 0x36, 0xce, 0x16,
  0x45, 0x23, 0x1c, 0xd9, 0x04, 0xf2, 0xcd, 0x46, 0x47, 0x36, 0x49, 0x32,
  0x00, 0x11, 0xd0, 0x1f, 0x2c, 0xa5, 0x45, 0xc1, 0xcf, 0x17, 0x24, 0xe5,
  0xfa, 0xe4, 0x4f, 0x29, 0x1d, 0xfc, 0xbe, 0x11, 0x33, 0xda, 0x5f, 0xfb,
  0xf2, 0xb2, 0x04, 0x49, 0x26, 0xd0, 0xc2, 0xd1, 0x23, 0xd0, 0x3d, 0x51,
  0xe3, 0xe8, 0xca, 0xc5, 0xd1, 0xf8, 0x0f, 0x5f, 0x24, 0x0f, 0x3f, 0xf1,
  0xf4, 0x18, 0xec, 0xd8, 0x23, 0x52, 0xe7, 0x2b, 0xeb, 0xba, 0x15, 0x41,
  0x2d, 0x0b, 0xd4, 0xf7, 0xf4, 0x04, 0xd2, 0xf6, 0x08, 0xec, 0xdc, 0xb5,
  0xe1, 0xed, 0x0a, 0xef, 0xe8, 0x48, 0xe7, 0xd0, 0x06, 0xae, 0x16, 0x6d,
  0xfe, 0xe9, 0xd5, 0xd8, 0xf5, 0xd8, 0xa9, 0x2c, 0x33, 0x3d, 0xd9, 0x13,
  0xd9, 0xa8, 0xb0, 0xd9, 0xfb, 0x4b, 0x65, 0x1c, 0x27, 0xdc, 0xa8, 0xf3,
  0xc1, 0xdf, 0x19, 0xb0, 0xc8, 0x21, 0xd4, 0xba, 0x9a, 0x16, 0xd9, 0xec,
  0xb9, 0xf1, 0xbd, 0xe1, 0xa2, 0xe4, 0xce, 0x10, 0xae, 0x87, 0xd4, 0xa8,
  0xfc, 0x3e, 0x21, 0x4d, 0xce, 0x6c, 0xdc, 0x81, 0x42, 0x13, 0xa8, 0x43,
  0xf1, 0xdb, 0xa7, 0xbf, 0xe4, 0x0d, 0xe5, 0x01, 0x22, 0x39, 0xf7, 0xf5,
  0x4a, 0x0c, 0xeb, 0x3e, 0x43, 0x2b, 0xab, 0xc5, 0x27, 0xbe, 0xf1, 0xd8,
  0x57, 0x33, 0x27, 0x22, 0x10, 0xae, 0xe5, 0xfa, 0xd7, 0x01, 0xf3, 0xd3,
  0xf2, 0x9c, 0x9f, 0x48, 0xdf, 0x44, 0xbc, 0xef, 0x96, 0x39, 0x3d, 0x46,
  0xf0, 0xbe, 0xfc, 0x58, 0xdb, 0x45, 0xd4, 0x21, 0xcf, 0x31, 0xbf, 0xaa,
  0xb3, 0x02, 0x52, 0x40, 0xac, 0x1d, 0x26, 0xeb, 0x0d, 0xd9, 0x0a, 0xfe,
  0x54, 0xd2, 0xf6, 0x61, 0x4d, 0x30, 0x08, 0x1c, 0xdb, 0x29, 0xee, 0xe5,
  0x54, 0x8d, 0x07, 0x57, 0xaa, 0x20, 0x9f, 0x1e, 0xf4, 0x1b, 0x4e, 0x18,
  0x7f, 0xca, 0xcb, 0x6a, 0x64, 0x0e, 0x6d, 0x4b, 0xe3, 0x27, 0xbd, 0xb9,
  0xd7, 0x28, 0xf9, 0x49, 0xc9, 0x51, 0x74, 0xeb, 0xa1, 0x37, 0x1b, 0x14,
  0xb4, 0xf2, 0x41, 0xfc, 0x13, 0xd9, 0x14, 0x39, 0x15, 0xb8, 0xd7, 0x47,
  0x72, 0x02, 0x5e, 0x07, 0x36, 0x24, 0x5b, 0x40, 0xc7, 0xc8, 0xcc, 0x33,
  0x16, 0x3f, 0xe9, 0x26, 0xaf, 0x9c, 0x17, 0x25, 0xf8, 0x9d, 0x2b, 0xd3,
  0xdc, 0xef, 0xfe, 0xb5, 0x2e, 0xf9, 0x40, 0x08, 0xde, 0x0d, 0xdd, 0x26,
  0x54, 0x2f, 0x08, 0x71, 0xd2, 0xfb, 0x05, 0xac, 0xd0, 0x0e, 0xe3, 0x56,
  0xab, 0xe8, 0x58, 0x45, 0x1c, 0xa2, 0x0d, 0xc6, 0xd4, 0xd3, 0x9f, 0x45,
  0x7e, 0x2c, 0x1e, 0x4d, 0x3b, 0x13, 0x0a, 0xc6, 0xba, 0xeb, 0x04, 0xda,
  0x3d, 0xfa, 0x31, 0x3a, 0x00, 0x03, 0xdc, 0x1a, 0x18, 0x34, 0x1b, 0xbb,
  0x04, 0x34, 0x17, 0x11, 0x22, 0xde, 0xd2, 0x3f, 0xe1, 0x39, 0xf5, 0x7f,
  0xef, 0xe1, 0xd4, 0xe7, 0x01, 0xc0, 0xdc, 0xf9, 0x4e, 0xa5, 0x39, 0xd5,
  0xdf, 0xbb, 0x12, 0xe5, 0xf6, 0x15, 0xf8, 0xe0, 0xdc, 0xac, 0xfc, 0x2f,
  0x4c, 0xf7, 0xef, 0xe2, 0xd3, 0xfe, 0xe5, 0x61, 0xfd, 0xb0, 0xcb, 0x1d,
  0xb5, 0x1f, 0x12, 0x1e, 0x4b, 0xff, 0x29, 0xed, 0xe3, 0xda, 0x58, 0x09,
  0xc9, 0xba, 0x03, 0xa5, 0x1e, 0x35, 0xb1, 0xd2, 0xae, 0xb6, 0xec, 0x04,
  0xfa, 0xcf, 0xbe, 0x1d, 0x12, 0x20, 0x08, 0x35, 0xd9, 0x2c, 0x20, 0x4f,
  0x63, 0x0e, 0x3d, 0xc0, 0xb2, 0xe1, 0x13, 0xf2, 0x03, 0xf5, 0xc4, 0xd9,
  0xdf, 0x42, 0x1c, 0xd1, 0xf7, 0x06, 0x13, 0x12, 0xd9, 0xc3, 0xfb, 0xf7,
  0xfe, 0x35, 0x15, 0x17, 0x39, 0xed, 0xfe, 0x15, 0xb4, 0xd8, 0xd1, 0x2f,
  0xf5, 0x12, 0x34, 0xf9, 0x2a, 0x4b, 0xe1, 0x08, 0x1f, 0x34, 0xf0, 0x40,
  0xeb, 0x1c, 0xca, 0xe1, 0x56, 0xd1, 0xe8, 0x53, 0x15, 0xf7, 0x37, 0xf2,
  0xd1, 0xbd, 0x04, 0xf4, 0xad, 0xde, 0xfa, 0x22, 0x12, 0xfe, 0x34, 0x1b,
  0x49, 0xcf, 0xc2, 0x49, 0xf2, 0x0c, 0xe5, 0xf7, 0xf8, 0xd7, 0x19, 0x13,
  0xe9, 0xef, 0x05, 0xba, 0x51, 0xec, 0xf1, 0xd0, 0x00, 0xe3, 0x2e, 0x4e,
  0xd0, 0xf2, 0xda, 0xd3, 0x33, 0xd5, 0xd0, 0xe2, 0x4a, 0xbc, 0xe7, 0xde,
  0xd2, 0x41, 0xf5, 0x3d, 0x1c, 0xe2, 0xae, 0xc6, 0xfd, 0x07, 0xd3, 0xf6,
  0x24, 0x63, 0xef, 0x1a, 0x63, 0x31, 0xc0, 0x0e, 0x2a, 0xaf, 0xb2, 0x7f,
  0x2d, 0x01, 0xba, 0x02, 0xed, 0x03, 0x0f, 0x22, 0xd4, 0x22, 0xc6, 0x2c,
  0x48, 0x43, 0x2f, 0x37, 0x13, 0xe9, 0xe0, 0xf9, 0x02, 0x11, 0x42, 0xe5,
  0x34, 0xd4, 0xd9, 0xbd, 0xa9, 0x20, 0x60, 0x35, 0xcb, 0x26, 0xc2, 0x46,
  0xf6, 0xbd, 0xfe, 0x27, 0xe1, 0x21, 0xac, 0xf5, 0xf1, 0x35, 0xd5, 0x2d,
  0xe0, 0xf7, 0xc4, 0x2d, 0xf0, 0x3a, 0xed, 0x14, 0xf2, 0xc4, 0xc1, 0xd8,
  0xe6, 0xde, 0xe1, 0xfa, 0xfd, 0xce, 0x22, 0xcd, 0xfb, 0x2c, 0x37, 0x02,
  0xb3, 0x57, 0x39, 0x52, 0x3e, 0xf8, 0xa9, 0x64, 0x08, 0xd3, 0x23, 0xe6,
  0x43, 0xcb, 0x20, 0xc0, 0xc1, 0x5f, 0x09, 0xde, 0xc7, 0x42, 0xe4, 0xb5,
  0x13, 0xd3, 0x24, 0xdd, 0xb7, 0x05, 0x39, 0x35, 0xaf, 0x2f, 0xd7, 0xd7,
  0xf6, 0xdf, 0x59, 0xf9, 0x16, 0x03, 0xd9, 0x5e, 0x0d, 0x5a, 0x5b, 0x07,
  0x21, 0x2e, 0xa4, 0x56, 0xea, 0x0f, 0x06, 0x42, 0xb0, 0xc3, 0x1f, 0x70,
  0x20, 0xf4, 0x5c, 0xd5, 0xb2, 0xb3, 0xb0, 0xe5, 0x7f, 0xb3, 0x53, 0xdb,
  0x37, 0xfd, 0x35, 0x01, 0x75, 0x19, 0x4a, 0xa8, 0xc0, 0xad, 0xc7, 0x79,
  0x2e, 0x9f, 0xfd, 0xff, 0xc2, 0x68, 0xd6, 0x26, 0xc3, 0xc2, 0xf9, 0xd5,
  0xd9, 0xb4, 0xe6, 0x14, 0x35, 0x21, 0x9d, 0x5d, 0xf0, 0x50, 0xe4, 0x61,
  0xd2, 0x36, 0x15, 0x2c, 0xa4, 0xaf, 0x58, 0xf1, 0x66, 0x2c, 0xba, 0x45,
  0x8f, 0x33, 0xdf, 0x32, 0xf1, 0xf6, 0xe5, 0x59, 0xe7, 0x38, 0x5b, 0x3f,
  0xf4, 0xa8, 0xc7, 0xae, 0x74, 0xe5, 0x56, 0xa2, 0x28, 0x0c, 0xa2, 0xdc,
  0x36, 0x35, 0xdc, 0xb0, 0xb7, 0xc7, 0x18, 0x32, 0xa0, 0x0e, 0x19, 0x45,
  0x61, 0xa1, 0x4f, 0xc7, 0x3d, 0xfa, 0x91, 0x28, 0xac, 0xd8, 0xa5, 0x7f,
  0xa5, 0xd5, 0x9e, 0x1a, 0x35, 0x38, 0x1c, 0x55, 0x60, 0x48, 0xef, 0xdd,
  0xab, 0x20, 0xfc, 0xe3, 0xa3, 0xcb, 0xe1, 0xe1, 0xc0, 0xaf, 0x07, 0x0e,
  0xdc, 0x2a, 0x38, 0x75, 0x14, 0x52, 0xaa, 0xd1, 0x14, 0xe4, 0x97, 0x2c,
  0x62, 0x81, 0xf3, 0xfc, 0x06, 0x28, 0xfc, 0x3a, 0x35, 0x34, 0xb2, 0x2e,
  0xd1, 0xb8, 0xf4, 0x12, 0xce, 0x44, 0xfc, 0xb2, 0x45, 0xcd, 0xea, 0x07,
  0x3a, 0x19, 0x21, 0xc9, 0xf3, 0xc8, 0x13, 0x6a, 0xc7, 0xd3, 0x1a, 0xe3,
  0x14, 0x12, 0x0a, 0x21, 0xd0, 0x3a, 0x18, 0x3d, 0xd7, 0x0b, 0xff, 0xe6,
  0x19, 0x1e, 0x14, 0xff, 0x1f, 0xf4, 0xac, 0x0f, 0x2c, 0xbb, 0x32, 0x16,
  0xf7, 0xed, 0xc9, 0x54, 0x33, 0x18, 0x54, 0x37, 0x1c, 0xc1, 0x32, 0xdd,
  0xfc, 0xe1, 0xf8, 0x15, 0x23, 0xfe, 0xd4, 0x40, 0xe4, 0xc3, 0x3f, 0xcf,
  0x01, 0xc2, 0x26, 0x10, 0xde, 0x41, 0xd4, 0xcc, 0x02, 0x1b, 0x5f, 0xe7,
  0xc3, 0xe1, 0x2b, 0xee, 0x4e, 0xd6, 0x11, 0xf2, 0x97, 0xea, 0xcd, 0xfe,
  0x46, 0x8f, 0x01, 0x20, 0xab, 0x2b, 0xdd, 0xae, 0x28, 0x1d, 0xef, 0xdf,
  0x05, 0xde, 0xbf, 0xee, 0x1a, 0x15, 0xe0, 0x32, 0xb0, 0x54, 0xf8, 0x3e,
  0x21, 0xbb, 0x3b, 0x7f, 0x9f, 0x9f, 0x2e, 0x1b, 0xeb, 0x23, 0x02, 0xd4,
  0xd9, 0xa3, 0x5c, 0x55, 0xf2, 0x26, 0x01, 0xe6, 0xac, 0xda, 0xe4, 0x19,
  0x42, 0xc1, 0x0e, 0x04, 0x40, 0xd6, 0x66, 0x4e, 0x23, 0x6d, 0x0f, 0x33,
  0x0a, 0xb1, 0x50, 0x06, 0xe4, 0x10, 0x18, 0xde, 0xe9, 0xcb, 0xf5, 0xc2,
  0x8b, 0xca, 0xbc, 0xe3, 0xe8, 0x54, 0x5b, 0x36, 0xfc, 0xa7, 0x31, 0x94,
  0xcb, 0x67, 0xfb, 0x5b, 0xc9, 0xe0, 0xca, 0x1b, 0xfc, 0xa8, 0x40, 0xb0,
  0x49, 0xfd, 0x0e, 0xc8, 0x48, 0xf3, 0xfc, 0xbd, 0x04, 0x3c, 0xcf, 0x09,
  0x28, 0x87, 0xe6, 0x3f, 0x64, 0xd0, 0x43, 0xd1, 0xff, 0x3c, 0x27, 0xc2,
  0x15, 0xba, 0xf0, 0x50, 0x25, 0x2d, 0x0e, 0x2e, 0x5a, 0x48, 0xef, 0xdd,
  0x14, 0xf5, 0x36, 0x4f, 0x36, 0x88, 0x99, 0x35, 0xf4, 0x44, 0xf0, 0xb0,
  0x31, 0xeb, 0xe7, 0x13, 0xdd, 0x34, 0xb8, 0xcc, 0x46, 0x28, 0xd5, 0x3f,
  0x30, 0x21, 0xe3, 0x0e, 0x4e, 0x26, 0xad, 0xf8, 0xd5, 0xa1, 0x50, 0x11,
  0xbb, 0xf7, 0xcc, 0xf0, 0x45, 0xbc, 0x07, 0xee, 0xe7, 0xa9, 0xaa, 0xf4,
  0x57, 0x2e, 0xfb, 0x0d, 0x1e, 0x15, 0xaa, 0x44, 0x07, 0xe0, 0x1a, 0x4a,
  0xf9, 0x3d, 0xe5, 0xb2, 0xa7, 0xf7, 0x26, 0xa5, 0x11, 0xfb, 0xef, 0xd2,
  0x4d, 0x45, 0x45, 0x53, 0x48, 0xfc, 0xce, 0x96, 0x79, 0x29, 0xc3, 0x18,
  0xb1, 0x09, 0x1f, 0x48, 0xea, 0xfa, 0x1f, 0x16, 0x02, 0x22, 0xdd, 0x48,
  0xf9, 0xc6, 0x02, 0xda, 0x4b, 0xfe, 0xca, 0xde, 0xf4, 0x2c, 0xf8, 0x2b,
  0x62, 0x16, 0xf0, 0x81, 0x34, 0x16, 0x19, 0xf5, 0xbd, 0x3b, 0x00, 0xfe,
  0x94, 0x56, 0xb1, 0x1b, 0x47, 0x5b, 0xab, 0x71, 0x30, 0xd1, 0xbd, 0xff,
  0x0f, 0x0c, 0xf0, 0x91, 0x29, 0xd4, 0xe6, 0xc7, 0xfc, 0x95, 0xe1, 0xe8,
  0x1a, 0xac, 0xe3, 0xe1, 0xe0, 0x58, 0xc9, 0x45, 0xca, 0xc1, 0x10, 0x1a,
  0xb3, 0x1d, 0xff, 0xdf, 0x01, 0x1a, 0x41, 0xd6, 0x57, 0xc6, 0xae, 0x4c,
  0xd7, 0x2a, 0x18, 0x5c, 0x46, 0xe7, 0x21, 0xe4, 0xb9, 0x00, 0x03, 0x3c,
  0xf6, 0x4f, 0xdb, 0x53, 0x3e, 0x3d, 0xe2, 0xc1, 0xd6, 0x28, 0x08, 0x62,
  0xe8, 0x0d, 0x39, 0xfd, 0xc0, 0xda, 0xf7, 0x47, 0x4c, 0x25, 0x0b, 0xca,
  0x1c, 0xf9, 0x2e, 0x28, 0x50, 0x0d, 0xc7, 0x37, 0x3d, 0x44, 0x3c, 0x78,
  0xf6, 0xd1, 0x42, 0xd9, 0x5c, 0x2e, 0x6b, 0x02, 0x54, 0x48, 0x1b, 0xab,
  0xb5, 0x28, 0xf2, 0x56, 0xb9, 0xe6, 0xc5, 0xcd, 0x53, 0xaf, 0x04, 0x46,
  0xa5, 0xc8, 0x2f, 0x3f, 0x30, 0x4c, 0x0a, 0xb7, 0x12, 0xec, 0xa2, 0x50,
  0xa0, 0xd6, 0x11, 0xf6, 0x49, 0xd8, 0xe2, 0xdb, 0xe0, 0x2e, 0xb5, 0x7f,
  0x10, 0x50, 0x0c, 0x1c, 0x31, 0xd9, 0x2c, 0x4b, 0xad, 0x43, 0x0c, 0xf9,
  0x49, 0x27, 0x50, 0x3b, 0x81, 0xfc, 0x1f, 0x68, 0x32, 0xba, 0x33, 0xb4,
  0x01, 0xaa, 0x23, 0x9e, 0xb2, 0x00, 0x2d, 0x34, 0xff, 0xd0, 0xfd, 0xcf,
  0xe8, 0xc9, 0x13, 0xf3, 0x23, 0xeb, 0x02, 0xe2, 0xf6, 0x5d, 0xd4, 0x42,
  0x18, 0x2b, 0x56, 0x4b, 0x07, 0x05, 0x00, 0xa9, 0x31, 0xd2, 0x09, 0xe7,
  0xb0, 0xbb, 0xfc, 0x69, 0x40, 0xec, 0x1f, 0xb8, 0xb0, 0xbe, 0x3a, 0x3e,
  0xb0, 0xcf, 0x32, 0x32, 0x35, 0xdc, 0xe5, 0xe7, 0xe6, 0x0c, 0x14, 0xce,
  0xc8, 0x31, 0x27, 0xaa, 0x1e, 0x12, 0x05, 0xfd, 0xf0, 0x29, 0x3e, 0x1a,
  0x0f, 0x37, 0x47, 0x64, 0x42, 0x14, 0x36, 0xa1, 0x19, 0x37, 0x30, 0xc7,
  0x08, 0xea, 0xcc, 0xc7, 0xed, 0xd5, 0x3e, 0x48, 0x09, 0x1a, 0x44, 0x41,
  0xe9, 0x33, 0x33, 0xd8, 0x44, 0x3c, 0xe0, 0xca, 0x4c, 0xcc, 0xdb, 0xbc,
  0x4f, 0x34, 0x3a, 0x93, 0xb2, 0xd3, 0xc5, 0xe9, 0x02, 0x29, 0xa9, 0x74,
  0xf0, 0xa6, 0xd1, 0x81, 0x92, 0xf9, 0x43, 0x1e, 0x51, 0xbc, 0xb1, 0xdc,
  0x1d, 0xe1, 0x25, 0x26, 0x4a, 0x25, 0x5d, 0x65, 0xba, 0xf4, 0x57, 0xfa,
  0xb5, 0xe7, 0x34, 0xff, 0x06, 0x61, 0x51, 0xbf, 0x25, 0x13, 0x19, 0x87,
  0xc2, 0xd2, 0x42, 0xa7, 0x44, 0xcc, 0xef, 0x86, 0xee, 0x19, 0xcf, 0xcf,
  0xe0, 0xc7, 0xa1, 0x41, 0x3a, 0x32, 0x36, 0x32, 0x40, 0x5b, 0xc4, 0x3c,
  0x5b, 0x16, 0x32, 0xd3, 0xc0, 0x26, 0x00, 0xff, 0x89, 0x50, 0x5c, 0x9b,
  0x07, 0xb1, 0xf8, 0x05, 0x09, 0x25, 0x0c, 0x1c, 0x05, 0xa5, 0x49, 0xfc,
  0xfc, 0xfe, 0xfb, 0x1c, 0xde, 0xd3, 0xc5, 0xca, 0x45, 0xbd, 0xfa, 0xe6,
  0x37, 0xfe, 0x82, 0x1e, 0x2e, 0x0b, 0x0f, 0xb9, 0x29, 0xcb, 0xa8, 0x27,
  0x3b, 0x9d, 0xaa, 0x3e, 0xbf, 0x5d, 0xa2, 0xb1, 0x60, 0x0a, 0x0b, 0xd1,
  0x1f, 0x0b, 0x34, 0x2c, 0x19, 0x05, 0xc5, 0x11, 0xef, 0x53, 0x26, 0x12,
  0xee, 0xfc, 0x52, 0xe3, 0x09, 0x00, 0xeb, 0xc1, 0xe6, 0xe5, 0xc4, 0xd6,
  0x29, 0xd3, 0x33, 0xe4, 0x1e, 0xf8, 0xd6, 0x1d, 0xe5, 0x21, 0x0e, 0xab,
  0x1f, 0xaf, 0xc7, 0xeb, 0x12, 0xfc, 0x2b, 0xf5, 0x38, 0xee, 0x42, 0xe8,
  0xf3, 0x0b, 0xc5, 0x38, 0xd2, 0x19, 0x16, 0x09, 0xdc, 0xf2, 0x26, 0xe5,
  0xf0, 0x04, 0x00, 0x10, 0xec, 0xba, 0x0f, 0x07, 0x54, 0x0c, 0x26, 0xec,
  0x48, 0xe2, 0x0b, 0x1a, 0x46, 0x81, 0x06, 0xd9, 0xf6, 0x1e, 0xdc, 0xd3,
  0x01, 0xc4, 0xfd, 0x68, 0x0f, 0xda, 0x03, 0x26, 0x2f, 0x23, 0x23, 0x31,
  0xc5, 0x06, 0xbf, 0xce, 0x32, 0xe0, 0x3a, 0x0c, 0xdb, 0x2e, 0xf1, 0xdf,
  0xe5, 0xf3, 0x5b, 0x07, 0xba, 0x2e, 0xf5, 0x20, 0x1e, 0x16, 0x0c, 0x0c,
  0x30, 0xba, 0x25, 0x3d, 0x43, 0xf0, 0x9c, 0x10, 0xd7, 0xdc, 0xf9, 0x36,
  0x5c, 0xe5, 0xdd, 0x11, 0xdd, 0xc3, 0x18, 0x16, 0x3c, 0x00, 0xe6, 0xe4,
  0xf6, 0xff, 0xf6, 0xb5, 0x0b, 0xda, 0x46, 0x19, 0x48, 0xc6, 0xfb, 0x38,
  0x23, 0xde, 0xd2, 0xf2, 0xe4, 0xf2, 0xef, 0xd4, 0x05, 0x15, 0x2d, 0x60,
  0xee, 0xeb, 0xd2, 0x1c, 0xf8, 0x00, 0x2b, 0xe3, 0xe8, 0xfa, 0x48, 0x36,
  0xc0, 0xfe, 0x49, 0x0a, 0x24, 0xed, 0x0a, 0x1e, 0x44, 0x1a, 0x06, 0x0b,
  0x04, 0xca, 0x0c, 0xd1, 0x3e, 0x1b, 0x1d, 0x26, 0x42, 0xfc, 0x18, 0x40,
  0xc6, 0x01, 0x4f, 0x41, 0x27, 0xb9, 0x24, 0xef, 0xb7, 0x34, 0xcd, 0x42,
  0xd3, 0x20, 0xe7, 0x13, 0x7f, 0xdf, 0x23, 0xa8, 0x1c, 0xff, 0xdd, 0xc0,
  0x4b, 0x04, 0x45, 0x3a, 0xf8, 0xec, 0x0e, 0xfb, 0xdd, 0x56, 0xd6, 0xf9,
  0x28, 0xf0, 0xcb, 0x1b, 0x38, 0xf7, 0xec, 0x20, 0x35, 0xec, 0xf5, 0x52,
  0x36, 0xb2, 0x2a, 0xd2, 0x81, 0x12, 0x0d, 0xf2, 0xf9, 0x05, 0x05, 0x60,
  0x71, 0x1c, 0xa6, 0x2d, 0x0a, 0x19, 0x56, 0xcc, 0xc6, 0xac, 0x21, 0x0a,
  0xd1, 0x08, 0xde, 0xd1, 0x0c, 0xf6, 0x32, 0x47, 0x37, 0x14, 0xd9, 0x72,
  0xf7, 0x1a, 0xdf, 0xdf, 0x2f, 0xe5, 0xb6, 0x4a, 0x33, 0x1e, 0xbe, 0xe5,
  0x02, 0x11, 0x2f, 0xf8, 0x19, 0x37, 0xdb, 0x1c, 0x2c, 0x17, 0x3e, 0x31,
  0x18, 0x36, 0xbe, 0xc6, 0xd4, 0x08, 0xf1, 0xf0, 0x40, 0xce, 0x14, 0x05,
  0x47, 0x27, 0x11, 0xf4, 0x12, 0xd9, 0x3c, 0x03, 0x07, 0xef, 0x2a, 0x19,
  0xcc, 0x65, 0x20, 0x31, 0xcb, 0xe0, 0x06, 0x3e, 0x38, 0x59, 0x22, 0x2f,
  0xf2, 0xa9, 0xe1, 0x36, 0x4f, 0xc4, 0xf0, 0x9f, 0x43, 0x26, 0x21, 0x0f,
  0x18, 0xc7, 0xc3, 0xfa, 0x2a, 0xa7, 0xce, 0xe7, 0x31, 0x23, 0x07, 0xaa,
  0xf0, 0xee, 0x04, 0x47, 0x64, 0xac, 0x2c, 0x4c, 0x26, 0x3d, 0x3d, 0x1b,
  0xc9, 0xaf, 0x21, 0x08, 0x51, 0x58, 0xfe, 0x42, 0x1a, 0x5c, 0xe5, 0xf6,
  0x9e, 0xb9, 0x2e, 0xf6, 0xcf, 0x36, 0xaf, 0x28, 0xc6, 0xf0, 0x23, 0xed,
  0x56, 0x61, 0xd3, 0x62, 0xde, 0xcf, 0xa9, 0x2a, 0x31, 0xbf, 0x4f, 0xcd,
  0x76, 0x14, 0xfa, 0x53, 0x33, 0xd4, 0x44, 0x7f, 0x45, 0xea, 0x1a, 0x22,
  0xa0, 0x3b, 0x19, 0xe2, 0xbf, 0xe1, 0xd3, 0xe9, 0xcb, 0x5f, 0xd1, 0x49,
  0x9d, 0x01, 0xd3, 0x23, 0xb6, 0x9b, 0x26, 0xc4, 0x1a, 0x48, 0x23, 0xd4,
  0x5f, 0x15, 0x3b, 0x1c, 0x41, 0xc4, 0x9f, 0xd6, 0x2d, 0x07, 0xc3, 0xec,
  0xb5, 0x5d, 0xea, 0x00, 0xd6, 0x24, 0x25, 0x0d, 0x99, 0x1a, 0x2e, 0x3e,
  0xce, 0xe1, 0x43, 0xd3, 0x0f, 0x00, 0x58, 0xde, 0x68, 0xcc, 0xf2, 0x43,
  0x37, 0xd3, 0x0b, 0x24, 0xe6, 0x9d, 0xf1, 0x1c, 0x2f, 0xcb, 0xe0, 0x5f,
  0x0d, 0x23, 0xfe, 0xda, 0xea, 0xbe, 0x24, 0x29, 0xb5, 0xc0, 0x0a, 0x28,
  0x93, 0x00, 0xdd, 0x1d, 0xf6, 0xf6, 0xa9, 0x81, 0x4c, 0xd5, 0xe9, 0x1c,
  0xd2, 0x01, 0xf7, 0x38, 0x06, 0x86, 0xd0, 0xd8, 0xaa, 0x44, 0xb7, 0xd1,
  0x38, 0xa7, 0xd3, 0xd7, 0xde, 0x16, 0x34, 0xad, 0xdb, 0x31, 0x35, 0x25,
  0xf0, 0xa0, 0x4b, 0x0e, 0x94, 0xbc, 0xec, 0xac, 0x44, 0x09, 0x3b, 0xd6,
  0xff, 0xf6, 0xac, 0x5a, 0xce, 0x11, 0xdb, 0xb1, 0xad, 0x9f, 0x1b, 0x3e,
  0x52, 0xbd, 0x1e, 0x1a, 0xcd, 0x03, 0x3d, 0x23, 0xbf, 0xe8, 0x23, 0xdc,
  0xff, 0x19, 0xc9, 0x5a, 0x23, 0x5a, 0x05, 0xa1, 0x47, 0xc4, 0x48, 0xfe,
  0x06, 0xbb, 0x16, 0x2c, 0x0f, 0xdf, 0x0c, 0xd2, 0x07, 0xd8, 0xce, 0x48,
  0xc7, 0xf6, 0x4f, 0xee, 0xf7, 0xd1, 0x0e, 0xe1, 0xe8, 0xec, 0xeb, 0x2a,
  0xfa, 0xee, 0x16, 0x94, 0x1f, 0xfb, 0xf9, 0x47, 0x97, 0xf9, 0xf8, 0xa1,
  0xdb, 0xd2, 0x47, 0xfe, 0x16, 0xeb, 0xff, 0xff, 0x04, 0x00, 0x00, 0x00,
  0x00, 0x06, 0x00, 0x00, 0x11, 0x87, 0xfb, 0xc0, 0x17, 0x05, 0x68, 0xca,
  0xd3, 0xda, 0xf1, 0x19, 0x40, 0x2e, 0x4f, 0x4f, 0x8f, 0x36, 0x4e, 0xa6,
  0x1a, 0x18, 0x20, 0x3d, 0x02, 0xeb, 0x0a, 0x5d, 0xb6, 0x93, 0x09, 0x9d,
  0x9d, 0x5a, 0x9b, 0xd9, 0xcd, 0xbb, 0x81, 0x3a, 0x2f, 0x92, 0xfa, 0x10,
  0xad, 0x20, 0xcd, 0xef, 0xde, 0x6f, 0xb3, 0x97, 0x9b, 0x6c, 0x02, 0xb5,
  0x0d, 0xa3, 0xdd, 0x29, 0x0c, 0x62, 0x83, 0xcc, 0x44, 0xfc, 0x64, 0x1a,
  0xb6, 0x60, 0x00, 0xb3, 0xa2, 0x5f, 0x4e, 0x51, 0xe5, 0x41, 0x9f, 0x63,
  0xe4, 0x02, 0x93, 0x2d, 0x81, 0x12, 0x02, 0x47, 0x34, 0xd3, 0x0b, 0xb6,
  0x47, 0x36, 0x8b, 0xb8, 0xcd, 0xdb, 0xe8, 0xa2, 0xc5, 0xd9, 0xff, 0xe4,
  0x26, 0x2c, 0xcd, 0x81, 0x1f, 0xc0, 0xe4, 0xb4, 0xc0, 0xd6, 0xcf, 0xf1,
  0xc4, 0x42, 0x9c, 0x86, 0x42, 0xf0, 0xb8, 0x3a, 0x39, 0xb8, 0xdf, 0x09,
  0x31, 0x20, 0x27, 0x16, 0x02, 0x18, 0x5c, 0xd5, 0xaa, 0xce, 0xa6, 0xcc,
  0xd7, 0xa4, 0xb2, 0xdf, 0xe2, 0x10, 0xbb, 0x47, 0xca, 0x4e, 0x3d, 0x7f,
  0x50, 0xb0, 0x21, 0xab, 0x15, 0x6d, 0xfd, 0xf8, 0xf8, 0xe6, 0xed, 0x31,
  0x98, 0x5e, 0x76, 0x8d, 0x8f, 0xe2, 0x6d, 0x74, 0x47, 0x38, 0xdb, 0xa9,
  0x09, 0x04, 0x35, 0xc3, 0xbf, 0x5c, 0xd2, 0xbf, 0x13, 0x97, 0xf2, 0x64,
  0x51, 0x42, 0xdf, 0xca, 0x25, 0x98, 0x96, 0xdd, 0x58, 0x9c, 0x06, 0xb3,
  0xf2, 0xd2, 0xc7, 0x17, 0xf6, 0xa7, 0x19, 0x93, 0x39, 0x46, 0xe1, 0x00,
  0xd6, 0x7f, 0x57, 0xc4, 0x35, 0xad, 0x9a, 0xd0, 0x50, 0x03, 0x4d, 0x9b,
  0x03, 0xcc, 0x8d, 0x41, 0xf1, 0x30, 0xfa, 0x83, 0xf8, 0x1b, 0x73, 0x03,
  0xaa, 0xd0, 0xa5, 0xe6, 0xe9, 0x99, 0x14, 0xfc, 0xc8, 0xb4, 0xe7, 0xf3,
  0xf6, 0x92, 0x8f, 0x24, 0xd3, 0xf9, 0xd3, 0x46, 0x4a, 0xee, 0x1a, 0xa8,
  0x92, 0x92, 0x4a, 0xe7, 0xa0, 0x1c, 0x2d, 0x23, 0xb2, 0x5f, 0x34, 0xda,
  0xbd, 0x81, 0x06, 0x48, 0x53, 0xf4, 0xf1, 0xcc, 0xe2, 0xb8, 0x47, 0x3e,
  0x3f, 0x13, 0x47, 0x06, 0x92, 0x2f, 0xed, 0xcb, 0xc6, 0xdb, 0x0d, 0x3c,
  0xc9, 0x58, 0x0e, 0xe0, 0x39, 0x5a, 0xaa, 0x74, 0xeb, 0xc5, 0xa0, 0x0a,
  0xba, 0x74, 0xd6, 0x81, 0x28, 0x42, 0x37, 0xf1, 0xec, 0x8f, 0x3d, 0x43,
  0x46, 0x6b, 0x28, 0xe1, 0xf9, 0x19, 0x46, 0xb1, 0x5b, 0x85, 0x0d, 0x6c,
  0xad, 0xcf, 0xb7, 0x2d, 0xdf, 0x81, 0xd0, 0xbb, 0x89, 0xf6, 0x37, 0xb2,
  0x0b, 0xc9, 0x8f, 0xf6, 0x25, 0x0b, 0x13, 0xd7, 0x27, 0xad, 0x26, 0xe9,
  0xc6, 0x08, 0x5c, 0xd1, 0xd3, 0x4b, 0x53, 0x42, 0xa3, 0x89, 0xa2, 0x2a,
  0x30, 0xab, 0xc0, 0x0a, 0xba, 0x41, 0x2d, 0x2d, 0x0b, 0x94, 0xb3, 0xdd,
  0x4d, 0x75, 0xf9, 0x96, 0x27, 0x30, 0x85, 0xbc, 0xac, 0xf2, 0x1d, 0xc8,
  0x01, 0x4c, 0x96, 0x13, 0x44, 0xc2, 0x82, 0xe7, 0x10, 0xff, 0x17, 0xe6,
  0xbd, 0x8f, 0xcb, 0xed, 0xbc, 0xe2, 0x8b, 0x4f, 0x81, 0x01, 0xdc, 0xa4,
  0xc8, 0x3a, 0xc1, 0xbb, 0x2f, 0x34, 0xee, 0x39, 0xa9, 0xc3, 0xdd, 0xad,
  0x08, 0xd1, 0x11, 0xd5, 0xeb, 0x31, 0x53, 0x81, 0x58, 0x2d, 0xbe, 0x08,
  0xf2, 0x99, 0xb8, 0x30, 0xa1, 0x0f, 0x6c, 0x28, 0xd6, 0x65, 0xf3, 0xc9,
  0x6c, 0x37, 0x33, 0x2f, 0x47, 0xf0, 0xe9, 0xaa, 0x60, 0xdd, 0x04, 0xfa,
  0x15, 0xc8, 0xf3, 0xd0, 0x1a, 0x4a, 0x34, 0x3e, 0xd5, 0x3b, 0xc3, 0x3c,
  0xd2, 0xe7, 0xb6, 0x3e, 0x10, 0x50, 0x81, 0x02, 0x2e, 0x22, 0x11, 0x45,
  0xc6, 0x35, 0xc6, 0xdd, 0xab, 0x30, 0x08, 0xef, 0x04, 0xe0, 0x2c, 0xf7,
  0x45, 0x73, 0xe8, 0xcf, 0x00, 0x29, 0x27, 0xac, 0xeb, 0x0e, 0xc0, 0xb7,
  0x3b, 0x3e, 0x95, 0x1b, 0x41, 0xe8, 0x15, 0x21, 0x01, 0xfa, 0x44, 0xa3,
  0x7f, 0x06, 0x08, 0xdf, 0xac, 0x0c, 0x13, 0xc1, 0x20, 0x3a, 0xce, 0x69,
  0xff, 0xeb, 0x38, 0x3b, 0xff, 0x35, 0x40, 0xdb, 0xc4, 0x71, 0xd7, 0xcc,
  0x21, 0x34, 0x8d, 0xff, 0x93, 0xe7, 0x05, 0x16, 0xc7, 0xd5, 0xf7, 0x9e,
  0x0e, 0x14, 0xac, 0xc0, 0xde, 0x2e, 0x15, 0x17, 0xd6, 0xb7, 0x49, 0xc2,
  0x2d, 0x7f, 0x0f, 0xea, 0x01, 0xd6, 0x51, 0x19, 0x0e, 0xa8, 0x17, 0x96,
  0x4e, 0xdc, 0x47, 0xc6, 0xd6, 0xa0, 0x38, 0x50, 0xe5, 0x32, 0x03, 0xee,
  0x4b, 0x0c, 0x37, 0xe6, 0x06, 0xac, 0x48, 0x58, 0x8d, 0xe6, 0x7a, 0x03,
  0xb9, 0x7f, 0xce, 0xc1, 0x21, 0xeb, 0xee, 0x13, 0xcf, 0x5f, 0x48, 0x19,
  0xce, 0xbe, 0x9a, 0x5e, 0xf1, 0x46, 0xef, 0xbc, 0x00, 0x78, 0xb2, 0xf9,
  0x36, 0x1c, 0x8d, 0xc6, 0xc2, 0x05, 0xfd, 0xb7, 0x34, 0x40, 0xdd, 0xd4,
  0xd4, 0x52, 0xa2, 0x60, 0xa1, 0x45, 0x5a, 0xfd, 0x49, 0x28, 0xb9, 0x81,
  0x50, 0xdd, 0x12, 0xfa, 0xfe, 0xde, 0xac, 0x5f, 0xb0, 0x26, 0xe9, 0x1b,
  0xb6, 0xcc, 0x04, 0x3f, 0xeb, 0x82, 0x94, 0xd1, 0x39, 0x16, 0x24, 0x89,
  0x42, 0x08, 0xc1, 0x91, 0xd1, 0x2e, 0x34, 0x4c, 0xf0, 0xd5, 0xbd, 0x89,
  0x9a, 0xed, 0xf7, 0xab, 0xae, 0xd9, 0xdb, 0x24, 0xec, 0xd3, 0x0d, 0xac,
  0x93, 0x33, 0xd4, 0x46, 0x30, 0x24, 0xe0, 0x32, 0xfd, 0x81, 0xd1, 0xd9,
  0xc9, 0x1e, 0xb8, 0x1d, 0xcb, 0x67, 0x66, 0x3c, 0xbf, 0x3c, 0x2c, 0xe1,
  0x36, 0x4d, 0xb2, 0xff, 0x37, 0x0a, 0xc9, 0xfa, 0xec, 0x83, 0xc5, 0x5c,
  0xb0, 0xdf, 0x10, 0x3e, 0x12, 0x38, 0xbc, 0x0f, 0x13, 0x50, 0x1b, 0xc3,
  0xa2, 0x9f, 0xbb, 0x28, 0xef, 0x5f, 0xbd, 0x1e, 0x81, 0xce, 0xc2, 0xfd,
  0xef, 0x90, 0xba, 0xff, 0x10, 0x6d, 0xdf, 0x04, 0xe6, 0x95, 0x3b, 0x44,
  0x9b, 0xd6, 0x49, 0x3e, 0xbb, 0x05, 0x20, 0xca, 0x6d, 0x17, 0x5b, 0xdc,
  0x4b, 0xbb, 0xb3, 0x81, 0x91, 0x08, 0xcc, 0xef, 0xd4, 0xa3, 0xc2, 0x3a,
  0x42, 0xc5, 0x2b, 0xd8, 0x15, 0x65, 0x5d, 0x11, 0xfc, 0xb4, 0x6c, 0xd0,
  0xbf, 0x21, 0x5a, 0xe2, 0xd3, 0xfb, 0x23, 0x4f, 0x10, 0x86, 0xc5, 0x2b,
  0x18, 0xb6, 0x23, 0x46, 0x25, 0x38, 0x81, 0x0e, 0x10, 0x4b, 0xac, 0x6a,
  0x27, 0x50, 0xf3, 0xb8, 0x3d, 0x1a, 0xdf, 0xb5, 0x69, 0xa5, 0xaa, 0x2f,
  0x1b, 0x29, 0xd3, 0x48, 0xbe, 0x45, 0xe6, 0x1f, 0xa8, 0xa4, 0xe2, 0x40,
  0x27, 0xd4, 0xc4, 0xf2, 0xf8, 0xbb, 0x7f, 0xc3, 0xc4, 0x14, 0x40, 0xca,
  0x54, 0xf0, 0x35, 0x4a, 0x06, 0xdf, 0xb3, 0xb4, 0x08, 0xac, 0x2b, 0xf2,
  0x38, 0x2f, 0x96, 0xe8, 0x1d, 0x2a, 0xae, 0x31, 0x9c, 0xea, 0xae, 0x2b,
  0x18, 0x46, 0x2a, 0x1d, 0xbf, 0xd6, 0x4a, 0x1c, 0x9e, 0xa2, 0xb7, 0x10,
  0x67, 0x6d, 0x0c, 0xfa, 0x42, 0x31, 0x0d, 0xeb, 0x5d, 0xba, 0xba, 0xe3,
  0x17, 0xcb, 0x06, 0xed, 0x28, 0x0a, 0xbc, 0x90, 0x06, 0xeb, 0x29, 0x5a,
  0x81, 0xe7, 0x43, 0x10, 0xee, 0xb8, 0x70, 0xbd, 0xff, 0xed, 0xdc, 0x71,
  0x0a, 0x00, 0xe9, 0x45, 0x5f, 0xd8, 0xe7, 0xf7, 0x76, 0x01, 0xdd, 0x42,
  0xf3, 0xdd, 0xe3, 0x2e, 0x7f, 0xe5, 0xde, 0x17, 0xc3, 0x08, 0x42, 0x52,
  0x92, 0xd4, 0x44, 0x52, 0x69, 0x39, 0xb8, 0xe0, 0x01, 0xf2, 0xc2, 0x5d,
  0x5f, 0xdd, 0x9f, 0x72, 0x1e, 0xe9, 0xba, 0x42, 0xda, 0x3e, 0x20, 0x16,
  0x9e, 0x1a, 0xde, 0x68, 0xc3, 0x68, 0x4b, 0x33, 0xcb, 0x17, 0xf7, 0x4b,
  0xdb, 0x12, 0x36, 0xe4, 0xb7, 0x53, 0x03, 0x07, 0x40, 0xdb, 0xdf, 0x2f,
  0xff, 0x02, 0x1b, 0xdc, 0xd8, 0x7f, 0x20, 0xed, 0xd0, 0x3d, 0xf8, 0x4e,
  0x19, 0xf2, 0x53, 0x12, 0xd5, 0xde, 0xce, 0xc6, 0x45, 0xc6, 0x0e, 0x08,
  0xfc, 0xbd, 0x2a, 0x29, 0x09, 0x2c, 0x05, 0xed, 0x19, 0xd0, 0xb4, 0x6b,
  0xcb, 0xee, 0x65, 0x0e, 0xce, 0xbb, 0xf6, 0x04, 0x5a, 0x45, 0x26, 0x42,
  0x81, 0x26, 0x11, 0xe9, 0xb7, 0x66, 0x4f, 0xc9, 0x45, 0xec, 0x9a, 0xd6,
  0x58, 0xe6, 0x03, 0x76, 0x1b, 0xf6, 0xc0, 0xee, 0xbc, 0xa5, 0x5b, 0xcd,
  0x40, 0xd1, 0x2d, 0xac, 0x31, 0xf3, 0x40, 0x29, 0x58, 0xd3, 0xc8, 0x5f,
  0x4a, 0xe7, 0x41, 0xcb, 0xd1, 0x00, 0xa2, 0x5f, 0x48, 0xfe, 0x0d, 0x53,
  0x0a, 0xd9, 0xfd, 0x30, 0x4a, 0xb8, 0xb8, 0x18, 0xfc, 0x81, 0xb0, 0x28,
  0x9c, 0xec, 0xc7, 0xa1, 0x09, 0x11, 0x06, 0x46, 0x1f, 0xef, 0x63, 0xf1,
  0x04, 0xa8, 0xb0, 0x4f, 0xa8, 0xa7, 0xbe, 0x8d, 0xd4, 0xca, 0xb9, 0x97,
  0x3b, 0xff, 0x47, 0xfe, 0x09, 0xfa, 0x92, 0x38, 0x59, 0xa7, 0xe2, 0x22,
  0xb6, 0xd6, 0x33, 0x9c, 0xe7, 0x4f, 0x4a, 0xab, 0xf9, 0xd5, 0x13, 0x6e,
  0xa6, 0xa0, 0x6e, 0xac, 0xbd, 0xfb, 0xdd, 0x2a, 0x3e, 0x57, 0x3b, 0xcb,
  0xba, 0xfc, 0xbd, 0xd2, 0x9a, 0x87, 0x33, 0x95, 0x81, 0x8d, 0xa7, 0xa0,
  0x09, 0x10, 0xfa, 0x95, 0xf1, 0x3b, 0x14, 0x34, 0x53, 0x81, 0x32, 0xb4,
  0xbf, 0x33, 0xfa, 0xe1, 0x81, 0x3c, 0x13, 0x9f, 0xf9, 0x5a, 0x31, 0xb0,
  0x28, 0x1a, 0x93, 0x13, 0x1f, 0xe4, 0x5c, 0x9b, 0x30, 0x4d, 0x03, 0x38,
  0xc5, 0x4e, 0xd8, 0xc5, 0xf7, 0x04, 0x34, 0xc4, 0xf2, 0x6f, 0xa8, 0x69,
  0x29, 0x14, 0x02, 0xe6, 0xca, 0x1f, 0xde, 0xc1, 0x44, 0xbf, 0x10, 0x9d,
  0x36, 0x81, 0xab, 0xb0, 0x22, 0x25, 0x88, 0x88, 0xa0, 0xc7, 0xe6, 0x00,
  0xd7, 0x8d, 0xd4, 0x9d, 0x9a, 0x37, 0x9c, 0x3c, 0x8e, 0x3f, 0xc6, 0xa9,
  0xe6, 0x8e, 0xf0, 0x36, 0x8f, 0xc2, 0x06, 0x52, 0xa0, 0x5d, 0xd8, 0x86,
  0xf6, 0x8a, 0xd6, 0xd7, 0xfd, 0xc8, 0x8d, 0x10, 0xdc, 0xa9, 0x48, 0xf2,
  0x1a, 0xd9, 0xf6, 0x8f, 0x8b, 0x89, 0xa3, 0x9a, 0x35, 0x5c, 0xb1, 0x04,
  0xe4, 0xf5, 0x0d, 0xeb, 0xf3, 0x35, 0xa1, 0x25, 0xda, 0xd6, 0xdd, 0x8c,
  0x27, 0x1e, 0x5a, 0x2e, 0xdb, 0xb7, 0x7f, 0x5c, 0xc7, 0xb0, 0x95, 0xec,
  0xb8, 0x6a, 0x92, 0x3a, 0xc7, 0xb1, 0xff, 0x07, 0xc4, 0x92, 0x05, 0x9a,
  0x81, 0xa1, 0x56, 0x51, 0x38, 0x12, 0x3b, 0xba, 0xe5, 0x8f, 0xd1, 0x8b,
  0xfe, 0xff, 0x31, 0x09, 0x9b, 0x5b, 0x1f, 0xba, 0xc0, 0xcd, 0xd9, 0xba,
  0x24, 0xcf, 0x4f, 0x98, 0x61, 0xfa, 0x16, 0x9c, 0x94, 0xa7, 0xc4, 0x05,
  0x32, 0x58, 0xc0, 0x2a, 0xc8, 0x6c, 0xdc, 0x48, 0xdd, 0x1c, 0x15, 0xff,
  0xe9, 0xb3, 0xe6, 0x2c, 0xd8, 0x5b, 0x0d, 0xfb, 0x05, 0xb9, 0x8c, 0x36,
  0x27, 0x36, 0x4b, 0xd4, 0xec, 0xc0, 0x38, 0x56, 0x69, 0xdf, 0xc3, 0xcb,
  0x30, 0x95, 0x00, 0x56, 0x14, 0x04, 0x95, 0x7f, 0x4f, 0xf5, 0x5a, 0xab,
  0xac, 0x31, 0xc6, 0x58, 0x1f, 0x11, 0xe7, 0xe7, 0xb7, 0x05, 0x37, 0x22,
  0xe8, 0x56, 0x81, 0x3b, 0x92, 0x07, 0x64, 0xe3, 0x4c, 0xc9, 0xc5, 0x30,
  0x03, 0x67, 0x2a, 0xb6, 0xde, 0xa3, 0x40, 0x01, 0xb6, 0x4a, 0x4f, 0x1f,
  0xdf, 0x8b, 0x47, 0x94, 0x90, 0x32, 0x6f, 0xa3, 0xf0, 0x02, 0x24, 0x21,
  0xed, 0x5b, 0x37, 0x95, 0x3b, 0xe7, 0xed, 0x27, 0x0f, 0x4a, 0x2c, 0x06,
  0xbe, 0x10, 0xc9, 0xb6, 0x18, 0x36, 0xe4, 0xb5, 0x9b, 0x81, 0xd7, 0xa4,
  0x40, 0x09, 0xf8, 0xcb, 0xd3, 0x04, 0xa3, 0x2e, 0x2f, 0x1f, 0xdd, 0x1f,
  0xa4, 0x40, 0xcc, 0xe5, 0xcd, 0xc1, 0x03, 0xef, 0x8d, 0x42, 0xe3, 0x41,
  0xbe, 0xe9, 0xbc, 0x18, 0x22, 0xf1, 0xff, 0xff, 0x04, 0x00, 0x00, 0x00,
  0x80, 0x0c, 0x00, 0x00, 0xeb, 0xce, 0x10, 0xfc, 0xef, 0xea, 0x16, 0x02,
  0x0c, 0x28, 0x0a, 0x04, 0x11, 0xd5, 0x16, 0x42, 0x03, 0x38, 0xf5, 0x29,
  0x2b, 0x40, 0x05, 0x03, 0xb3, 0x1a, 0x1b, 0x04, 0xe7, 0xee, 0x1b, 0x12,
  0xf8, 0xf2, 0xfb, 0xe4, 0x16, 0x0d, 0x6c, 0xfa, 0x08, 0xdf, 0x0d, 0x04,
  0x3d, 0x0f, 0x26, 0xf8, 0x1c, 0xfb, 0xfe, 0xf8, 0xf7, 0xfa, 0x04, 0xfc,
  0xe7, 0x14, 0xe1, 0x28, 0xe9, 0x22, 0x02, 0xec, 0xe5, 0xfd, 0x10, 0xf7,
  0xdd, 0xfa, 0x22, 0x18, 0x0c, 0x1d, 0xfc, 0xf9, 0xf8, 0xdd, 0x0a, 0x3c,
  0x02, 0x3d, 0x0d, 0x0a, 0x24, 0x47, 0x13, 0x28, 0xaf, 0x24, 0x15, 0xf6,
  0x01, 0xe2, 0x27, 0x02, 0x00, 0xe7, 0xf2, 0xe3, 0xfe, 0x08, 0x4d, 0xd3,
  0x10, 0xee, 0x09, 0x03, 0x3b, 0x0d, 0x13, 0x18, 0x08, 0xfa, 0xdc, 0x11,
  0xc9, 0xdc, 0x0c, 0x20, 0xe9, 0xf4, 0xed, 0x1b, 0xd1, 0x09, 0x0d, 0xed,
  0xeb, 0xdb, 0x0a, 0xe9, 0xd2, 0xe8, 0x0c, 0x1c, 0x29, 0x09, 0xe3, 0xec,
  0x16, 0xe5, 0x1a, 0x51, 0x06, 0x38, 0x0d, 0x27, 0x15, 0x46, 0x0f, 0x2d,
  0xbe, 0xf1, 0x0d, 0x2f, 0x09, 0xe2, 0x29, 0x0d, 0xeb, 0xfa, 0x08, 0xf6,
  0x13, 0x0c, 0x4d, 0xe8, 0x04, 0xe1, 0x21, 0x1b, 0x3f, 0xf5, 0x08, 0xf9,
  0x15, 0x0a, 0x02, 0x0d, 0xd0, 0x00, 0xf9, 0x1e, 0xf2, 0x00, 0xf0, 0x31,
  0xfd, 0x1c, 0xf0, 0xe0, 0xfe, 0xfa, 0xf2, 0xed, 0xe8, 0xf6, 0xfc, 0x21,
  0x14, 0x10, 0xf8, 0xe5, 0xfe, 0xdb, 0x1a, 0x28, 0xf7, 0x32, 0x2a, 0x2d,
  0x2c, 0x43, 0x10, 0x39, 0xc1, 0x10, 0x08, 0x37, 0x08, 0xf9, 0x19, 0x0e,
  0x0c, 0x07, 0x2a, 0xfb, 0x0b, 0xfe, 0x4b, 0xe1, 0x06, 0xe9, 0x0d, 0x08,
  0x53, 0xfe, 0x08, 0x0f, 0x21, 0x0e, 0x00, 0x0a, 0xf7, 0xea, 0x02, 0x17,
  0xef, 0xfb, 0xe2, 0x17, 0xed, 0x1c, 0x08, 0x07, 0xe5, 0xe1, 0x02, 0x12,
  0xf4, 0xdf, 0x04, 0x24, 0x0c, 0xef, 0x00, 0xed, 0xff, 0xf2, 0x1c, 0x27,
  0x29, 0x22, 0x3c, 0x16, 0x28, 0x3e, 0x24, 0x2c, 0xd9, 0xf8, 0x23, 0x1f,
  0xfd, 0xe2, 0x03, 0xfb, 0x02, 0x01, 0x2f, 0x03, 0xfa, 0xfa, 0x2a, 0xf3,
  0xf5, 0x14, 0x07, 0xfd, 0x0d, 0x14, 0x22, 0x0a, 0xfd, 0x13, 0xf0, 0x0f,
  0xf0, 0xec, 0xff, 0xe4, 0xf6, 0xf0, 0xf2, 0x13, 0xd5, 0x28, 0xf9, 0x0e,
  0xf9, 0xfa, 0xf3, 0xf3, 0xd8, 0xef, 0xf9, 0x0f, 0x0d, 0x18, 0x00, 0x12,
  0x14, 0xdd, 0x10, 0x36, 0x1c, 0x44, 0x0d, 0x18, 0x16, 0x32, 0x00, 0x20,
  0xd9, 0x0b, 0xf9, 0x0a, 0xf5, 0xf7, 0x21, 0x19, 0xf6, 0xef, 0xfb, 0x14,
  0x12, 0x04, 0x49, 0xe9, 0x0c, 0xfa, 0x07, 0x0b, 0x37, 0x0f, 0x0d, 0x13,
  0xf6, 0x14, 0xed, 0xe5, 0xe7, 0x09, 0x06, 0xf2, 0xdc, 0x0f, 0xf6, 0x2e,
  0xf7, 0x2c, 0x03, 0xfd, 0xec, 0xf8, 0x07, 0x0e, 0xec, 0xd3, 0x21, 0x23,
  0x21, 0x06, 0xed, 0x05, 0xf3, 0xed, 0x1d, 0x68, 0x26, 0x47, 0x06, 0x13,
  0x26, 0x4a, 0xff, 0x39, 0xbd, 0xfb, 0xfb, 0xfe, 0xf1, 0xeb, 0x2e, 0x2a,
  0x05, 0xe1, 0x16, 0xfd, 0x0c, 0x05, 0x5e, 0xde, 0x1b, 0x08, 0x18, 0xf9,
  0x4c, 0xee, 0x09, 0x18, 0x02, 0x2d, 0xfa, 0xf0, 0xd1, 0xfa, 0x04, 0x35,
  0xd3, 0x09, 0xe1, 0x29, 0xf6, 0x3a, 0x00, 0xea, 0x08, 0xee, 0xf4, 0xf0,
  0xdb, 0xc5, 0x19, 0x1f, 0x25, 0x1e, 0xf1, 0xfb, 0x04, 0xd8, 0x19, 0x7f,
  0x1b, 0x28, 0x12, 0x17, 0x2d, 0x42, 0x0c, 0x49, 0xce, 0xe2, 0xfc, 0x0c,
  0xf2, 0xf3, 0x34, 0x24, 0xf3, 0xee, 0x06, 0x0b, 0x05, 0xf6, 0x20, 0xed,
  0x1a, 0x05, 0x0c, 0xeb, 0x4a, 0x0b, 0x1b, 0xfc, 0x21, 0x2c, 0x0a, 0x03,
  0xeb, 0xf6, 0xf9, 0x35, 0xd6, 0x19, 0xf0, 0x3d, 0x11, 0x3f, 0x18, 0x05,
  0x02, 0xe4, 0xe9, 0xe7, 0xce, 0xbc, 0x12, 0x23, 0x1e, 0x18, 0x00, 0xfb,
  0x0b, 0xf3, 0x2b, 0x56, 0x02, 0x39, 0x01, 0x1d, 0x35, 0x3a, 0x05, 0x4c,
  0xb6, 0xdb, 0xfa, 0x10, 0xf7, 0xe9, 0x36, 0x0a, 0xf8, 0x02, 0x34, 0xf8,
  0x1f, 0x07, 0x1b, 0xfd, 0x07, 0x14, 0x06, 0xf6, 0x2e, 0xfe, 0x0d, 0xf8,
  0x08, 0x08, 0x0b, 0x15, 0xe6, 0x0b, 0xfc, 0x15, 0xd9, 0x14, 0xe6, 0x46,
  0xf0, 0x46, 0x01, 0xfe, 0xf8, 0xe1, 0xff, 0xed, 0xe2, 0xee, 0xf3, 0x36,
  0x26, 0xf9, 0xe4, 0xf6, 0xff, 0xf1, 0x1f, 0x36, 0x07, 0x31, 0x2f, 0x15,
  0x09, 0x07, 0xf4, 0x3e, 0xd6, 0xf5, 0x08, 0x03, 0x0a, 0xde, 0x05, 0xf5,
  0xff, 0x12, 0x29, 0xf6, 0xeb, 0x14, 0x19, 0xf5, 0xee, 0x1a, 0x09, 0x00,
  0x18, 0xfa, 0x0c, 0x06, 0x04, 0xfc, 0xfe, 0x13, 0x0c, 0xf9, 0x0c, 0xe9,
  0xe0, 0x18, 0xe9, 0x2d, 0xeb, 0x15, 0x0c, 0xf2, 0xf6, 0xf4, 0xfe, 0xf4,
  0xf1, 0xe9, 0x08, 0x37, 0x02, 0x0e, 0xfe, 0x12, 0xec, 0xe8, 0x26, 0x5d,
  0x19, 0x2a, 0xf5, 0x2e, 0x0c, 0x1d, 0x0e, 0xed, 0xeb, 0xf3, 0x03, 0xe2,
  0xf8, 0xee, 0xfe, 0x18, 0xf3, 0x04, 0x01, 0x07, 0x02, 0x04, 0x36, 0xf1,
  0xfa, 0xf7, 0xef, 0xf7, 0x22, 0xf1, 0x19, 0x0c, 0xe9, 0x08, 0x03, 0xef,
  0xcc, 0x03, 0x0d, 0xed, 0xcb, 0xec, 0xf6, 0x25, 0xf0, 0x1a, 0x15, 0xee,
  0xf5, 0xf8, 0x0e, 0xfc, 0xe8, 0xcb, 0x0d, 0x29, 0x19, 0x1d, 0x0d, 0xf2,
  0x00, 0xdc, 0x10, 0x72, 0x13, 0x1c, 0xf5, 0x20, 0x24, 0x36, 0xed, 0x1c,
  0xce, 0xe2, 0xe4, 0xf6, 0x0a, 0x09, 0x33, 0x23, 0x06, 0xe4, 0x1d, 0xf5,
  0x29, 0x0c, 0x32, 0xeb, 0x00, 0x12, 0xfe, 0xf3, 0x5d, 0x04, 0x2c, 0x05,
  0xee, 0x37, 0xe1, 0x03, 0xdd, 0xfd, 0x14, 0x26, 0xf4, 0xfc, 0x10, 0x2d,
  0xff, 0x2d, 0x1b, 0xeb, 0xc9, 0x08, 0xff, 0x06, 0xed, 0xb7, 0x08, 0x30,
  0x36, 0x14, 0xf5, 0xf4, 0xf6, 0xfc, 0x22, 0x5f, 0x26, 0x14, 0x0e, 0x22,
  0x33, 0x53, 0x05, 0x17, 0xe1, 0xd6, 0xf4, 0x11, 0xe5, 0x06, 0x12, 0x23,
  0xff, 0x0b, 0x1b, 0x0d, 0x26, 0x0d, 0x41, 0xe5, 0xf8, 0x0c, 0xed, 0xf9,
  0x5e, 0x04, 0x08, 0xf6, 0x1c, 0x2a, 0x18, 0xea, 0xcf, 0x0b, 0xeb, 0x46,
  0xcd, 0xf6, 0xfb, 0x23, 0xfa, 0x49, 0x0c, 0x04, 0xd1, 0x06, 0x04, 0xf2,
  0xf3, 0xd2, 0x10, 0x3e, 0x42, 0x07, 0x06, 0x18, 0x02, 0xe9, 0x2a, 0x46,
  0x38, 0x19, 0x10, 0x10, 0x15, 0x45, 0xea, 0x25, 0xc0, 0xde, 0xf4, 0xf9,
  0xf5, 0x03, 0x1c, 0x11, 0xfd, 0xf1, 0x20, 0xf6, 0x03, 0x0c, 0x37, 0xf5,
  0x09, 0xec, 0xf8, 0xff, 0x3d, 0x05, 0x19, 0x01, 0xf0, 0x16, 0xf9, 0xf6,
  0xe4, 0x13, 0xfc, 0x1c, 0xd0, 0xf7, 0x05, 0x24, 0xf8, 0x2e, 0x0b, 0x03,
  0xe3, 0xf2, 0x05, 0xee, 0xf0, 0xd3, 0xf9, 0x2b, 0x04, 0xf2, 0xff, 0xee,
  0x15, 0xe5, 0x1e, 0x20, 0x25, 0x1b, 0x1b, 0x22, 0x18, 0x07, 0x07, 0x36,
  0xc8, 0xee, 0x01, 0xee, 0xf9, 0xfd, 0xea, 0x09, 0xf9, 0x02, 0x12, 0xfe,
  0xee, 0xff, 0x3c, 0x10, 0xe3, 0x0b, 0xee, 0xf5, 0xfa, 0x0b, 0x1d, 0xf9,
  0xf4, 0x1b, 0xf8, 0xe2, 0x07, 0x10, 0x04, 0xfe, 0xe0, 0xf9, 0xf3, 0x2a,
  0xd4, 0x24, 0xfd, 0x05, 0xf4, 0xfc, 0xfe, 0x05, 0xef, 0xdb, 0x0e, 0x17,
  0x0f, 0xe8, 0xdc, 0x02, 0x08, 0x01, 0x0d, 0x40, 0x16, 0x07, 0x03, 0x2c,
  0x0f, 0xff, 0xfd, 0x07, 0xf8, 0xed, 0xdd, 0xee, 0x07, 0xe9, 0xf1, 0x03,
  0xf7, 0x03, 0x02, 0xf7, 0xf2, 0x10, 0x37, 0xf6, 0xee, 0x11, 0xf6, 0x08,
  0x34, 0x0f, 0x16, 0x0b, 0x0a, 0x0f, 0x00, 0x09, 0xf0, 0x0d, 0xeb, 0xfb,
  0xf0, 0xe9, 0xf1, 0x22, 0xee, 0x23, 0x17, 0xf1, 0xdf, 0xfc, 0xfd, 0xf4,
  0xff, 0xcb, 0x16, 0x1d, 0x16, 0x12, 0x0b, 0xf3, 0x0c, 0xed, 0x26, 0x47,
  0x38, 0xff, 0x1f, 0x30, 0x29, 0x1d, 0xf4, 0x16, 0xf7, 0xd4, 0xfd, 0xf2,
  0xf5, 0x15, 0x24, 0x35, 0x0e, 0xef, 0x0a, 0xf5, 0x10, 0xf8, 0x58, 0xe9,
  0xf0, 0xfd, 0x04, 0xf6, 0x45, 0x04, 0x0d, 0xf0, 0xfc, 0x23, 0x07, 0xf1,
  0xcb, 0x05, 0xf0, 0xff, 0xea, 0x0e, 0xfe, 0x1e, 0xea, 0x2e, 0x18, 0xee,
  0xde, 0x0c, 0xfd, 0xf8, 0xff, 0xc0, 0xfb, 0x28, 0x13, 0x00, 0x09, 0x09,
  0xfa, 0xde, 0x30, 0x52, 0x4a, 0x05, 0x07, 0x22, 0x1d, 0x36, 0xf2, 0x0f,
  0xd5, 0xc7, 0xdc, 0x1a, 0x07, 0x14, 0xf9, 0x11, 0xfc, 0xed, 0x1c, 0xf8,
  0x25, 0x03, 0x5f, 0xf5, 0x0c, 0x08, 0x03, 0xf5, 0x48, 0xfb, 0x23, 0x17,
  0x0d, 0x07, 0xfc, 0x05, 0xed, 0xff, 0xfb, 0x08, 0xea, 0xef, 0x0d, 0x29,
  0xf4, 0x32, 0x25, 0xf6, 0xf4, 0xf7, 0xeb, 0xee, 0xde, 0xbc, 0x0c, 0x3c,
  0x24, 0xfb, 0xf6, 0xf6, 0xef, 0x02, 0x28, 0x47, 0x45, 0x16, 0x0b, 0x28,
  0x12, 0x0e, 0xfc, 0x1f, 0xe2, 0xcd, 0xeb, 0x09, 0xef, 0x01, 0x01, 0x0f,
  0x12, 0xfe, 0x12, 0xf9, 0x02, 0xf8, 0x35, 0xf4, 0xed, 0xff, 0xf1, 0x09,
  0x42, 0x05, 0xff, 0x0f, 0xef, 0x04, 0xff, 0xe4, 0xf3, 0x07, 0xec, 0x03,
  0xf6, 0xf8, 0x17, 0x2a, 0xf2, 0x4a, 0x1a, 0x07, 0xf2, 0xe8, 0xe0, 0xef,
  0xf5, 0xd7, 0xfb, 0x34, 0x1c, 0xf0, 0xd6, 0xf0, 0x0b, 0xed, 0x1d, 0x2c,
  0x2c, 0x14, 0x21, 0x39, 0x1f, 0x26, 0xff, 0x13, 0xe0, 0xd8, 0xf6, 0xe3,
  0x15, 0xf8, 0xd5, 0x1c, 0xed, 0x05, 0x1e, 0x02, 0x0a, 0xea, 0x37, 0x0a,
  0xfb, 0xfe, 0xfa, 0xfd, 0x15, 0x16, 0xeb, 0xeb, 0x00, 0x0b, 0xe9, 0xf1,
  0xf4, 0xfc, 0xf8, 0xf4, 0xee, 0x11, 0xea, 0x1e, 0xc3, 0x3b, 0x19, 0xee,
  0x0f, 0x17, 0x17, 0x01, 0xfd, 0xfd, 0x01, 0x3b, 0x1d, 0xea, 0xdb, 0xf3,
  0xed, 0x05, 0x08, 0x31, 0x2b, 0x23, 0xf3, 0x31, 0x14, 0xfd, 0xfe, 0xf6,
  0x01, 0xe3, 0x0b, 0x11, 0xe7, 0x08, 0xf3, 0x0f, 0x13, 0xf2, 0x0c, 0xf2,
  0xf4, 0x0b, 0x1f, 0xdc, 0x04, 0x0f, 0xef, 0x09, 0x2f, 0xf3, 0x23, 0x0a,
  0xfe, 0x21, 0xf9, 0xf9, 0xdb, 0x0f, 0xfa, 0xbd, 0xef, 0xe4, 0xe9, 0x30,
  0x08, 0x28, 0x11, 0x20, 0xf1, 0x0a, 0x19, 0x00, 0xf3, 0xef, 0x22, 0x39,
  0x2e, 0xe1, 0xf5, 0xea, 0x1a, 0x0d, 0x36, 0x23, 0x2c, 0xfd, 0x1d, 0x3b,
  0x22, 0x1b, 0xf6, 0xfd, 0xdf, 0xd5, 0xfc, 0x14, 0xe0, 0x07, 0xef, 0x19,
  0x12, 0xf4, 0x17, 0xf4, 0x1a, 0xe6, 0x2f, 0xea, 0xef, 0xff, 0xe2, 0x1b,
  0x3a, 0xf7, 0x2a, 0x11, 0xdd, 0x1d, 0xff, 0xe2, 0xef, 0x04, 0xf5, 0xeb,
  0xec, 0xe4, 0xe2, 0x23, 0x01, 0x13, 0x07, 0xf8, 0x06, 0x0c, 0x13, 0xf7,
  0xfd, 0xd3, 0x0a, 0x25, 0x1b, 0xea, 0xfc, 0xe9, 0x0c, 0xeb, 0x1a, 0x31,
  0x50, 0xfd, 0x07, 0x4d, 0x0d, 0x22, 0xef, 0xf5, 0x01, 0xd1, 0x05, 0xf6,
  0xeb, 0xef, 0xea, 0x1e, 0x11, 0xf8, 0x2a, 0x00, 0x12, 0xea, 0x50, 0xe9,
  0xf1, 0xfe, 0xf6, 0xfb, 0x3a, 0xfb, 0x06, 0xfd, 0xee, 0x0d, 0xe2, 0xf3,
  0xf9, 0x12, 0xe9, 0xdb, 0xdf, 0xe6, 0x02, 0x2f, 0xf0, 0x2e, 0x1e, 0xfd,
  0xf0, 0xff, 0x0c, 0xec, 0xfd, 0xd3, 0x0c, 0x36, 0x16, 0xce, 0xf7, 0xea,
  0xfd, 0xe7, 0x2e, 0x36, 0x41, 0x20, 0x0f, 0x42, 0x22, 0x09, 0xeb, 0xfc,
  0xf8, 0xe6, 0xf2, 0x18, 0x08, 0x07, 0xf9, 0x1e, 0xff, 0x0f, 0x2e, 0x09,
  0x1a, 0xfe, 0x46, 0x04, 0xdd, 0xe7, 0x0e, 0x10, 0x38, 0x0b, 0x27, 0x18,
  0xe9, 0x18, 0xe3, 0xf4, 0xef, 0x0c, 0xf5, 0xf0, 0xef, 0xef, 0xf5, 0x42,
  0xe2, 0x09, 0x1b, 0x0d, 0x05, 0x0a, 0x09, 0xf5, 0xe0, 0xd4, 0x06, 0x0c,
  0x17, 0xfb, 0xe3, 0xfb, 0x03, 0x06, 0x27, 0x20, 0x15, 0x20, 0x15, 0x36,
  0x0f, 0x16, 0x01, 0xfd, 0xd1, 0xe2, 0xf9, 0x09, 0x0a, 0xfc, 0xe5, 0x0e,
  0xec, 0x06, 0x0a, 0x05, 0x09, 0x0c, 0x46, 0xf7, 0xd7, 0x10, 0xe3, 0xf9,
  0x13, 0x0b, 0xfa, 0x07, 0x01, 0x1f, 0x01, 0xe5, 0xcf, 0x0d, 0x0d, 0xcf,
  0x0c, 0x04, 0x07, 0x07, 0xd5, 0x21, 0x10, 0xf7, 0x05, 0x10, 0xf6, 0xfd,
  0x10, 0x06, 0xfb, 0xdb, 0xfb, 0xe7, 0x1d, 0x20, 0xf4, 0x2d, 0xe8, 0xd0,
  0x0b, 0xb1, 0x16, 0xdd, 0xfb, 0xdd, 0x04, 0x0f, 0x4c, 0xdb, 0xfa, 0xf7,
  0x01, 0xf9, 0xd9, 0xf5, 0xfa, 0x08, 0x03, 0xfc, 0x09, 0x0b, 0x9e, 0x1b,
  0xd2, 0x0b, 0x02, 0xf3, 0xd4, 0x00, 0xfa, 0x03, 0xf7, 0x03, 0x15, 0x0e,
  0x1b, 0x02, 0xf1, 0xf7, 0x16, 0x12, 0xfd, 0xf0, 0x10, 0x0a, 0x06, 0x11,
  0x04, 0x2a, 0xf9, 0x09, 0x2b, 0x15, 0xef, 0x07, 0xe3, 0xfe, 0xf8, 0x0f,
  0xfb, 0x34, 0xdd, 0xb9, 0x07, 0xc3, 0x05, 0xdc, 0xd8, 0xc2, 0x00, 0xd5,
  0x57, 0xf7, 0x06, 0xd9, 0x00, 0x04, 0xdd, 0xe5, 0x12, 0xf8, 0x0d, 0xf7,
  0xed, 0x05, 0xa6, 0x05, 0xed, 0x07, 0xe6, 0xec, 0xb4, 0x0e, 0xde, 0x0f,
  0xef, 0xf2, 0xfb, 0xfa, 0x2f, 0x00, 0x07, 0xe7, 0x13, 0xea, 0x11, 0xcb,
  0x02, 0x05, 0xf9, 0x18, 0x20, 0x04, 0xf2, 0xfc, 0x30, 0x28, 0xe4, 0xfa,
  0xe5, 0xf7, 0x1f, 0x10, 0xf2, 0x16, 0xdf, 0xbe, 0xf5, 0xbe, 0xe1, 0xc6,
  0xe2, 0xc3, 0x07, 0xdf, 0x54, 0xff, 0x01, 0xdb, 0x14, 0x15, 0xc7, 0xf1,
  0x12, 0x04, 0xe0, 0x09, 0xe4, 0xee, 0xba, 0x1c, 0xfc, 0xf8, 0xf8, 0xe9,
  0xc4, 0x0a, 0xe0, 0xf5, 0xe2, 0xd2, 0x10, 0xea, 0x2e, 0x06, 0x04, 0xe3,
  0x2b, 0x0c, 0x10, 0xcb, 0x1e, 0xf1, 0xec, 0xfd, 0xf3, 0x26, 0xee, 0xf2,
  0x3a, 0x25, 0xdd, 0xf2, 0xef, 0x0b, 0x0a, 0x19, 0x0e, 0x34, 0xde, 0xce,
  0xed, 0xd2, 0xff, 0xcd, 0xd8, 0xbe, 0x12, 0xdc, 0x3e, 0xf1, 0x05, 0xe0,
  0x13, 0x26, 0xbf, 0xf2, 0x21, 0x0d, 0x04, 0x11, 0xfb, 0xf7, 0xbf, 0x1d,
  0xfc, 0xfe, 0xf2, 0xda, 0xbe, 0x07, 0xee, 0xef, 0xdf, 0x04, 0x00, 0x08,
  0xfc, 0x03, 0xf9, 0xf4, 0x35, 0x06, 0x18, 0xed, 0x1b, 0xd6, 0x11, 0xfd,
  0x08, 0x0f, 0xfe, 0x16, 0x0c, 0x1d, 0xf9, 0xc7, 0xe2, 0x12, 0x0c, 0x1f,
  0x04, 0x0b, 0x03, 0xe9, 0xf0, 0xd5, 0xdd, 0xc0, 0xeb, 0xe1, 0xf2, 0xcc,
  0x40, 0xfc, 0xfd, 0xf1, 0xf2, 0x15, 0xff, 0x06, 0xfe, 0xfe, 0xe4, 0x0a,
  0x06, 0xf9, 0xbe, 0xf2, 0xe4, 0xec, 0x0a, 0x12, 0xe3, 0x1a, 0xfd, 0x09,
  0xee, 0xee, 0x0a, 0x0b, 0x10, 0x12, 0x0b, 0x1d, 0x08, 0x04, 0x24, 0xee,
  0x2b, 0xef, 0xfe, 0xf7, 0x13, 0x1b, 0xf2, 0xfa, 0x0e, 0x14, 0xe4, 0xec,
  0xeb, 0xeb, 0x0f, 0x05, 0xe6, 0x1e, 0xd9, 0xac, 0xdf, 0xe5, 0x20, 0xea,
  0xec, 0xea, 0xea, 0xfa, 0x2a, 0xfb, 0x01, 0x01, 0x04, 0x09, 0xdf, 0xe7,
  0x06, 0xfd, 0x0c, 0x00, 0xfa, 0xf0, 0xa3, 0xff, 0xd6, 0x01, 0xff, 0x10,
  0xb3, 0x14, 0x01, 0xf2, 0xf5, 0x07, 0x18, 0xf2, 0x14, 0x0a, 0x0d, 0x18,
  0x1c, 0xf9, 0xff, 0xe6, 0x21, 0xee, 0xf5, 0xfc, 0x13, 0x09, 0x05, 0x0d,
  0x1f, 0x1a, 0xff, 0xdd, 0xe9, 0xfa, 0xff, 0x12, 0xe6, 0x1c, 0xe2, 0xb6,
  0xec, 0xe4, 0x0f, 0xf1, 0xe0, 0xbd, 0xfb, 0xe9, 0x2f, 0xe2, 0x0f, 0xe9,
  0xf2, 0x01, 0xd0, 0xe1, 0x07, 0xf8, 0xf4, 0x02, 0xf6, 0xfc, 0xcc, 0x15,
  0xf6, 0x0d, 0xfc, 0x12, 0xc9, 0xf8, 0xe5, 0x11, 0x0e, 0xfc, 0x15, 0xec,
  0x32, 0x0a, 0x0b, 0xe4, 0x22, 0xf4, 0xfa, 0xd8, 0xff, 0xcb, 0xe3, 0x01,
  0x24, 0xfb, 0xe4, 0xf6, 0x1f, 0x1a, 0xea, 0xfb, 0xbf, 0xd8, 0x1d, 0x00,
  0x12, 0x16, 0xf6, 0xac, 0xec, 0xb4, 0x01, 0xd8, 0xda, 0xd0, 0x12, 0xd5,
  0x35, 0xf7, 0x1c, 0x00, 0xfe, 0xfa, 0xd8, 0xd2, 0x14, 0xf7, 0xf9, 0xf6,
  0xf7, 0xec, 0xc0, 0x1b, 0x06, 0x06, 0xfa, 0xed, 0xbb, 0x1b, 0x02, 0xec,
  0x04, 0xf8, 0x02, 0xe7, 0x23, 0xfe, 0x0c, 0xca, 0x14, 0x03, 0x20, 0xbf,
  0x1d, 0xd3, 0xeb, 0x02, 0x21, 0xf6, 0xee, 0xe8, 0x41, 0x19, 0xf7, 0xd6,
  0xbb, 0x0e, 0x2b, 0x03, 0xfb, 0x31, 0xf5, 0xba, 0xe8, 0xc4, 0x06, 0xe9,
  0xf2, 0xcd, 0x14, 0xda, 0x28, 0x15, 0x06, 0xd6, 0x18, 0x0d, 0xd2, 0xed,
  0x12, 0x04, 0xd4, 0xef, 0xf8, 0x07, 0xde, 0x2b, 0x0d, 0x19, 0xf8, 0xf0,
  0xe2, 0x02, 0x01, 0xe7, 0xf3, 0xe5, 0xf6, 0xe1, 0xf4, 0x09, 0x01, 0xc9,
  0x1c, 0xf4, 0x0c, 0xda, 0x0d, 0xda, 0xef, 0x0e, 0x0c, 0xfd, 0x10, 0xf8,
  0x23, 0x3b, 0xee, 0xec, 0xed, 0xf8, 0x2a, 0x05, 0x01, 0x25, 0x01, 0xc4,
  0xdf, 0xdc, 0xc8, 0xe1, 0xd2, 0xe5, 0xef, 0xca, 0x2a, 0x08, 0x00, 0xd8,
  0xec, 0x01, 0x09, 0xfc, 0x01, 0x19, 0xc7, 0xfe, 0x03, 0x12, 0xd3, 0xf2,
  0xf3, 0x04, 0x06, 0x06, 0xec, 0x0a, 0x0b, 0x10, 0x06, 0xf1, 0xff, 0x15,
  0x03, 0x02, 0x0f, 0xfd, 0x09, 0xf5, 0x27, 0xde, 0x38, 0xcf, 0xf2, 0xf8,
  0x1d, 0x03, 0x07, 0xf7, 0x00, 0x28, 0xfa, 0xef, 0xda, 0xec, 0x1e, 0x06,
  0xec, 0x13, 0xf2, 0xc5, 0xfb, 0xdb, 0x08, 0xdf, 0xd7, 0xf8, 0xfd, 0xea,
  0x1d, 0x19, 0x06, 0xf5, 0x04, 0x00, 0xfa, 0xf5, 0x0a, 0x19, 0x00, 0xf6,
  0x06, 0xf5, 0xbd, 0xf1, 0xf2, 0x08, 0xed, 0x10, 0xcc, 0xf9, 0x05, 0x06,
  0xed, 0xfc, 0x1d, 0x18, 0x26, 0xf2, 0x12, 0xfe, 0x27, 0xfb, 0x05, 0xd3,
  0xfc, 0xd9, 0xf2, 0xf9, 0xfe, 0x11, 0x11, 0x06, 0x00, 0x2c, 0xfa, 0xde,
  0xd5, 0xfc, 0x1a, 0xdf, 0xfb, 0x16, 0xdf, 0xa0, 0xd2, 0xf2, 0xf2, 0xe5,
  0xd8, 0xca, 0xf8, 0xe4, 0x29, 0x19, 0x08, 0xec, 0x11, 0x04, 0xf5, 0xe2,
  0x11, 0xf0, 0xf7, 0xf3, 0x03, 0x0a, 0xcf, 0x06, 0x00, 0x0e, 0x03, 0x0f,
  0xca, 0x0a, 0xef, 0xfe, 0x11, 0xf5, 0xfa, 0x26, 0x36, 0x08, 0x16, 0xff,
  0x1b, 0xfb, 0x00, 0xcd, 0x1a, 0xbb, 0xfc, 0xf7, 0x2a, 0x07, 0x07, 0x0d,
  0x1c, 0x45, 0xea, 0xce, 0xe0, 0xeb, 0x05, 0xef, 0xed, 0x14, 0xd8, 0x99,
  0xf1, 0xe8, 0xdf, 0xe6, 0xec, 0xa6, 0x06, 0xd3, 0x1e, 0x10, 0x07, 0xe8,
  0xf5, 0xfc, 0xdb, 0xd0, 0x16, 0x25, 0xdf, 0x16, 0xfc, 0x04, 0xcf, 0xef,
  0xe9, 0xf5, 0xf1, 0x0e, 0xba, 0x11, 0xff, 0xe7, 0x0c, 0xf5, 0x14, 0x05,
  0x3e, 0x0a, 0xf7, 0xc9, 0x0a, 0xe3, 0x0f, 0xe1, 0xef, 0xc8, 0xdd, 0x0f,
  0x28, 0x0d, 0x01, 0xf5, 0x08, 0x44, 0xf9, 0xd6, 0xe3, 0xf9, 0x12, 0x00,
  0xf1, 0x11, 0xec, 0x8f, 0xd9, 0xcd, 0xf8, 0xd8, 0xec, 0xcc, 0xf8, 0xd7,
  0x1c, 0x33, 0x05, 0xf1, 0x07, 0xf9, 0xf7, 0xea, 0x15, 0x08, 0xcf, 0xf2,
  0xf8, 0x09, 0xd7, 0xfb, 0xf7, 0xf5, 0xfc, 0x06, 0xde, 0x08, 0xea, 0xf7,
  0x0c, 0xe4, 0xf7, 0x09, 0x02, 0xf4, 0xf9, 0xd5, 0x30, 0xf9, 0x03, 0xe6,
  0x13, 0xbf, 0xf1, 0x0b, 0x0f, 0x00, 0x17, 0xf7, 0x23, 0x19, 0xfc, 0xd7,
  0xdc, 0x19, 0x25, 0xea, 0x09, 0x09, 0xf0, 0xd5, 0xd4, 0xc9, 0xe8, 0xe9,
  0xe3, 0xf8, 0x0f, 0xcf, 0x22, 0x0e, 0x01, 0x01, 0xf0, 0x02, 0x15, 0xef,
  0x06, 0x13, 0xd0, 0x00, 0x0c, 0x00, 0xe9, 0xf5, 0x1e, 0xf6, 0xf4, 0xf2,
  0x04, 0x0b, 0x07, 0xf9, 0x15, 0xf7, 0xf4, 0x12, 0x0f, 0x05, 0xeb, 0x11,
  0x0c, 0xe3, 0x0c, 0xdb, 0x1d, 0xe0, 0xe6, 0x0c, 0x13, 0x1a, 0x0d, 0x03,
  0x06, 0x3d, 0xef, 0xdd, 0xe5, 0xf1, 0x0d, 0xfd, 0x13, 0x23, 0xdf, 0xb7,
  0xe8, 0xdf, 0x06, 0xea, 0xea, 0xee, 0xea, 0xf1, 0x23, 0x2c, 0xfb, 0x1b,
  0x04, 0xfb, 0xe8, 0xce, 0x0a, 0x0c, 0xeb, 0xfc, 0xf9, 0x10, 0xc0, 0xf8,
  0x03, 0x07, 0x0f, 0x10, 0xce, 0x12, 0xf5, 0xf6, 0x00, 0xe0, 0x10, 0xee,
  0xfe, 0xe9, 0xf1, 0x2b, 0x39, 0x11, 0x08, 0xe2, 0xff, 0xb7, 0xed, 0xfd,
  0xfe, 0xfb, 0xf9, 0x09, 0x15, 0x4b, 0x02, 0xd7, 0xdb, 0xff, 0x0d, 0xec,
  0xe6, 0x17, 0xeb, 0xc7, 0xe6, 0xe2, 0x09, 0xda, 0xdc, 0xc6, 0xfc, 0xef,
  0x2c, 0x22, 0x1b, 0xf3, 0x12, 0xfe, 0xff, 0xea, 0x14, 0x08, 0xee, 0xea,
  0xfc, 0x0f, 0xa7, 0x07, 0x0a, 0xe8, 0x02, 0xfd, 0xb9, 0xf9, 0xe0, 0xea,
  0xf6, 0xe9, 0x10, 0xff, 0x26, 0x08, 0x1b, 0x13, 0x0e, 0xf5, 0xfc, 0xdd,
  0xfe, 0xd3, 0xef, 0x04, 0x19, 0xfc, 0x05, 0x02, 0xf4, 0x51, 0xe7, 0xda,
  0xc8, 0xf2, 0xff, 0xfc, 0x0c, 0xfd, 0xde, 0xb2, 0xd8, 0xf7, 0xec, 0xe4,
  0xe3, 0xd8, 0x1d, 0x07, 0x23, 0x08, 0x0f, 0xf1, 0x18, 0x09, 0xf3, 0xc2,
  0xfa, 0x0b, 0xf3, 0xf3, 0xf3, 0x09, 0xa3, 0x06, 0x14, 0xf7, 0xfa, 0x01,
  0xc1, 0x09, 0xfc, 0x03, 0x1e, 0xf0, 0x01, 0x24, 0x2b, 0xf8, 0x16, 0xf8,
  0x31, 0x09, 0xeb, 0xc8, 0x19, 0xc0, 0xfc, 0x00, 0x11, 0xff, 0xfd, 0x0c,
  0xf4, 0x3a, 0xf8, 0xdd, 0xe8, 0x10, 0x06, 0x00, 0x03, 0x21, 0xc9, 0xcc,
  0xd8, 0xe8, 0xef, 0xeb, 0xce, 0xe5, 0x10, 0xdf, 0x29, 0x36, 0x05, 0x11,
  0xf0, 0x07, 0xe5, 0xf6, 0x0c, 0x04, 0xcb, 0xf3, 0xf2, 0x04, 0xb6, 0xf2,
  0x1a, 0x09, 0xf4, 0xfc, 0xbd, 0xfd, 0xe3, 0x08, 0x11, 0xe5, 0xfa, 0x18,
  0x18, 0x08, 0xf5, 0x10, 0x09, 0xfe, 0x12, 0xd7, 0x10, 0xe2, 0xfc, 0x17,
  0x22, 0x09, 0xff, 0x0c, 0x27, 0x1b, 0xf5, 0xd3, 0xde, 0xf8, 0x1e, 0xfa,
  0xf3, 0x02, 0xe3, 0xe5, 0xc0, 0xd0, 0xea, 0xf0, 0xf2, 0xe1, 0x05, 0xea,
  0x31, 0xfd, 0x0d, 0x05, 0xfb, 0xf9, 0x1e, 0x05, 0xf1, 0x06, 0xd4, 0xfa,
  0x11, 0xf7, 0xdf, 0x04, 0x2f, 0xf7, 0x03, 0xfd, 0x06, 0x18, 0xe3, 0xe8,
  0x1e, 0xf2, 0x07, 0xf8, 0x12, 0xe8, 0x11, 0x28, 0x2e, 0xfe, 0xf8, 0xca,
  0x15, 0xec, 0xf6, 0xf3, 0xe9, 0xf2, 0xec, 0x13, 0x16, 0x24, 0xf5, 0xc8,
  0xea, 0x2e, 0x14, 0x20, 0xf7, 0x2d, 0xd3, 0xda, 0xe2, 0x0b, 0xf1, 0xc1,
  0xf2, 0x01, 0xfc, 0x17, 0x1e, 0x03, 0x18, 0x18, 0xfa, 0xea, 0x25, 0xf8,
  0x0f, 0x14, 0xe8, 0xfe, 0xda, 0x01, 0xd7, 0x03, 0xf7, 0xfd, 0x2f, 0x05,
  0xe0, 0xf3, 0xdb, 0xec, 0x13, 0xde, 0x1a, 0x1c, 0x01, 0xfb, 0xee, 0x25,
  0x2d, 0x08, 0x21, 0xdc, 0x16, 0x00, 0xec, 0xff, 0x01, 0xe1, 0xf2, 0x06,
  0xec, 0x34, 0x0a, 0xc0, 0xfd, 0x0f, 0x20, 0x09, 0x02, 0x1f, 0xda, 0xd2,
  0xb3, 0xf7, 0xff, 0xda, 0xfc, 0xdc, 0x00, 0xef, 0x07, 0x06, 0x17, 0xec,
  0xf2, 0xf9, 0x2a, 0xf4, 0xfb, 0x18, 0xdf, 0xf7, 0xf9, 0xf2, 0xc2, 0x1d,
  0x07, 0x0c, 0xfb, 0x13, 0xbe, 0xf7, 0xe6, 0xf5, 0x25, 0xee, 0x22, 0x08,
  0x34, 0xf4, 0x11, 0x2c, 0x0e, 0x0f, 0xf6, 0xcb, 0x14, 0xe3, 0xe0, 0xf9,
  0x0e, 0xe3, 0xec, 0x12, 0x18, 0x1f, 0xf0, 0xba, 0xe6, 0x18, 0x09, 0x12,
  0xea, 0xfa, 0xdf, 0xcc, 0xc6, 0xfc, 0xf9, 0xdf, 0xd5, 0x00, 0xfa, 0x00,
  0x1c, 0x2c, 0x04, 0xf9, 0x02, 0xe4, 0xfa, 0xf1, 0xee, 0x08, 0xfa, 0xf5,
  0xdf, 0xf7, 0xbd, 0x07, 0x01, 0x07, 0x0c, 0x01, 0xca, 0xf8, 0xf5, 0xed,
  0x31, 0xca, 0x11, 0x2a, 0x08, 0xf7, 0x08, 0x0b, 0x14, 0x18, 0x06, 0xc0,
  0x08, 0xdc, 0xf4, 0xfb, 0x06, 0xdc, 0xee, 0x01, 0xff, 0x32, 0xf4, 0xda,
  0xd4, 0x08, 0x1c, 0x0e, 0xf4, 0x0a, 0xc0, 0xec, 0xc2, 0xe5, 0xf9, 0xe8,
  0xdf, 0xfd, 0x04, 0x06, 0x1a, 0x38, 0x15, 0x16, 0x0d, 0xfb, 0x0b, 0xf0,
  0xe5, 0x20, 0xe2, 0x11, 0xed, 0x1a, 0xbd, 0x10, 0x0b, 0xfb, 0x20, 0x01,
  0xdf, 0x0c, 0xeb, 0xfd, 0x07, 0xda, 0xfb, 0x15, 0x2c, 0xf4, 0x16, 0x24,
  0x2b, 0x0a, 0xfe, 0xe6, 0x24, 0xd4, 0xeb, 0xfd, 0xf9, 0xef, 0xf9, 0x06,
  0x19, 0x01, 0x01, 0xcc, 0x14, 0x1e, 0x14, 0x26, 0x12, 0x02, 0xf3, 0xfa,
  0xce, 0xd7, 0xe9, 0xc1, 0x00, 0xef, 0x02, 0xeb, 0x31, 0x1e, 0xfd, 0xf0,
  0xf6, 0xff, 0x34, 0xd5, 0xf0, 0x21, 0xd8, 0xf6, 0xfc, 0x0f, 0xde, 0xea,
  0x01, 0x13, 0xf8, 0xe5, 0xf2, 0xf4, 0x04, 0x03, 0x1c, 0xe8, 0x16, 0x15,
  0x06, 0x08, 0x16, 0x2d, 0xf1, 0x02, 0x13, 0xda, 0x2b, 0xed, 0xf7, 0xdf,
  0xae, 0xfd, 0xff, 0xff, 0x04, 0x00, 0x00, 0x00, 0x08, 0x00, 0x00, 0x00,
  0xff, 0xff, 0xff, 0xff, 0x40, 0x06, 0x00, 0x00, 0xc2, 0xfd, 0xff, 0xff,
  0x04, 0x00, 0x00, 0x00, 0x08, 0x00, 0x00, 0x00, 0x76, 0xfc, 0xff, 0xff,
  0x8a, 0x03, 0x00, 0x00, 0xd6, 0xfd, 0xff, 0xff, 0x04, 0x00, 0x00, 0x00,
  0x00, 0x01, 0x00, 0x00, 0xf8, 0xff, 0xff, 0xff, 0x31, 0x00, 0x00, 0x00,
  0x70, 0xfe, 0xff, 0xff, 0x99, 0x01, 0x00, 0x00, 0x4f, 0x00, 0x00, 0x00,
  0x4f, 0x00, 0x00, 0x00, 0xfb, 0xfe, 0xff, 0xff, 0x95, 0xff, 0xff, 0xff,
  0x54, 0xff, 0xff, 0xff, 0x53, 0x01, 0x00, 0x00, 0x58, 0x00, 0x00, 0x00,
  0xa2, 0x00, 0x00, 0x00, 0x02, 0x00, 0x00, 0x00, 0x24, 0x01, 0x00, 0x00,
  0x2a, 0xff, 0xff, 0xff, 0x4a, 0xff, 0xff, 0xff, 0xb7, 0xff, 0xff, 0xff,
  0x4c, 0xff, 0xff, 0xff, 0xae, 0xff, 0xff, 0xff, 0x84, 0xff, 0xff, 0xff,
  0xaf, 0xfe, 0xff, 0xff, 0xcc, 0xff, 0xff, 0xff, 0x4a, 0x00, 0x00, 0x00,
  0xaf, 0xff, 0xff, 0xff, 0x11, 0x00, 0x00, 0x00, 0x3f, 0x00, 0x00, 0x00,
  0xb5, 0x00, 0x00, 0x00, 0xb3, 0xff, 0xff, 0xff, 0x78, 0x01, 0x00, 0x00,
  0x2b, 0x01, 0x00, 0x00, 0xeb, 0xff, 0xff, 0xff, 0x83, 0xff, 0xff, 0xff,
  0x8b, 0x00, 0x00, 0x00, 0xd7, 0x00, 0x00, 0x00, 0x5e, 0xff, 0xff, 0xff,
  0xca, 0xfe, 0xff, 0xff, 0xa8, 0xff, 0xff, 0xff, 0x93, 0xfe, 0xff, 0xff,
  0xbe, 0xff, 0xff, 0xff, 0x8c, 0x00, 0x00, 0x00, 0x01, 0x00, 0x00, 0x00,
  0x9c, 0x00, 0x00, 0x00, 0xd2, 0xff, 0xff, 0xff, 0x72, 0xff, 0xff, 0xff,
  0xa5, 0xff, 0xff, 0xff, 0x58, 0x01, 0x00, 0x00, 0xbe, 0xff, 0xff, 0xff,
  0xc9, 0xfe, 0xff, 0xff, 0xf4, 0xff, 0xff, 0xff, 0x56, 0xff, 0xff, 0xff,
  0x38, 0x00, 0x00, 0x00, 0x13, 0x00, 0x00, 0x00, 0x17, 0x00, 0x00, 0x00,
  0xac, 0xfe, 0xff, 0xff, 0xf8, 0x00, 0x00, 0x00, 0x61, 0x00, 0x00, 0x00,
  0x1a, 0x00, 0x00, 0x00, 0x21, 0x00, 0x00, 0x00, 0x7e, 0x00, 0x00, 0x00,
  0x25, 0xff, 0xff, 0xff, 0x72, 0x00, 0x00, 0x00, 0x38, 0xff, 0xff, 0xff,
  0xef, 0xfe, 0xff, 0xff, 0x7c, 0x00, 0x00, 0x00, 0xe2, 0xfe, 0xff, 0xff,
  0x04, 0x00, 0x00, 0x00, 0x80, 0x00, 0x00, 0x00, 0x40, 0x00, 0x00, 0x00,
  0x31, 0x00, 0x00, 0x00, 0x28, 0x00, 0x00, 0x00, 0xac, 0x00, 0x00, 0x00,
  0x2d, 0x00, 0x00, 0x00, 0x79, 0x00, 0x00, 0x00, 0xdb, 0x00, 0x00, 0x00,
  0x1f, 0x00, 0x00, 0x00, 0x81, 0xff, 0xff, 0xff, 0xfa, 0xff, 0xff, 0xff,
  0x49, 0x00, 0x00, 0x00, 0xa5, 0xff, 0xff, 0xff, 0xb6, 0xff, 0xff, 0xff,
  0x2d, 0x00, 0x00, 0x00, 0x5e, 0xff, 0xff, 0xff, 0x5a, 0xff, 0xff, 0xff,
  0xf7, 0x00, 0x00, 0x00, 0xa2, 0xff, 0xff, 0xff, 0x64, 0x00, 0x00, 0x00,
  0xc3, 0x00, 0x00, 0x00, 0xb2, 0x00, 0x00, 0x00, 0x6d, 0x00, 0x00, 0x00,
  0xf7, 0x00, 0x00, 0x00, 0x7a, 0x00, 0x00, 0x00, 0x93, 0x00, 0x00, 0x00,
  0x63, 0x00, 0x00, 0x00, 0xdd, 0xff, 0xff, 0xff, 0x2a, 0x00, 0x00, 0x00,
  0x2e, 0x00, 0x00, 0x00, 0x56, 0x00, 0x00, 0x00, 0x72, 0x00, 0x00, 0x00,
  0x78, 0xff, 0xff, 0xff, 0x80, 0xef, 0xff, 0xff, 0x84, 0xef, 0xff, 0xff,
  0x0f, 0x00, 0x00, 0x00, 0x4d, 0x4c, 0x49, 0x52, 0x20, 0x43, 0x6f, 0x6e,
  0x76, 0x65, 0x72, 0x74, 0x65, 0x64, 0x2e, 0x00, 0x01, 0x00, 0x00, 0x00,
  0x14, 0x00, 0x00, 0x00, 0x00, 0x00, 0x0e, 0x00, 0x18, 0x00, 0x14, 0x00,
  0x10, 0x00, 0x0c, 0x00, 0x08, 0x00, 0x04, 0x00, 0x0e, 0x00, 0x00, 0x00,
  0x14, 0x00, 0x00, 0x00, 0x1c, 0x00, 0x00, 0x00, 0x08, 0x02, 0x00, 0x00,
  0x0c, 0x02, 0x00, 0x00, 0x10, 0x02, 0x00, 0x00, 0x04, 0x00, 0x00, 0x00,
  0x6d, 0x61, 0x69, 0x6e, 0x00, 0x00, 0x00, 0x00, 0x07, 0x00, 0x00, 0x00,
  0xa4, 0x01, 0x00, 0x00, 0x40, 0x01, 0x00, 0x00, 0xf0, 0x00, 0x00, 0x00,
  0xac, 0x00, 0x00, 0x00, 0x84, 0x00, 0x00, 0x00, 0x40, 0x00, 0x00, 0x00,
  0x04, 0x00, 0x00, 0x00, 0xe6, 0xfe, 0xff, 0xff, 0x1c, 0x00, 0x00, 0x00,
  0x00, 0x00, 0x00, 0x09, 0x1c, 0x00, 0x00, 0x00, 0x20, 0x00, 0x00, 0x00,
  0x04, 0x00, 0x00, 0x00, 0x00, 0x00, 0x06, 0x00, 0x08, 0x00, 0x04, 0x00,
  0x06, 0x00, 0x00, 0x00, 0x00, 0x00, 0x80, 0x3f, 0x01, 0x00, 0x00, 0x00,
  0x0e, 0x00, 0x00, 0x00, 0x01, 0x00, 0x00, 0x00, 0x0d, 0x00, 0x00, 0x00,
  0x1e, 0xff, 0xff, 0xff, 0x14, 0x00, 0x00, 0x00, 0x00, 0x00, 0x00, 0x08,
  0x10, 0x00, 0x00, 0x00, 0x14, 0x00, 0x00, 0x00, 0x03, 0x00, 0x00, 0x00,
  0x48, 0xf0, 0xff, 0xff, 0x01, 0x00, 0x00, 0x00, 0x0d, 0x00, 0x00, 0x00,
  0x03, 0x00, 0x00, 0x00, 0x0c, 0x00, 0x00, 0x00, 0x05, 0x00, 0x00, 0x00,
  0x03, 0x00, 0x00, 0x00, 0x00, 0x00, 0x0a, 0x00, 0x10, 0x00, 0x0c, 0x00,
  0x08, 0x00, 0x04, 0x00, 0x0a, 0x00, 0x00, 0x00, 0x0c, 0x00, 0x00, 0x00,
  0x10, 0x00, 0x00, 0x00, 0x02, 0x00, 0x00, 0x00, 0x01, 0x00, 0x00, 0x00,
  0x0c, 0x00, 0x00, 0x00, 0x02, 0x00, 0x00, 0x00, 0x0b, 0x00, 0x00, 0x00,
  0x04, 0x00, 0x00, 0x00, 0x82, 0xff, 0xff, 0xff, 0x14, 0x00, 0x00, 0x00,
  0x00, 0x00, 0x00, 0x05, 0x24, 0x00, 0x00, 0x00, 0x28, 0x00, 0x00, 0x00,
  0x01, 0x00, 0x00, 0x00, 0x72, 0xff, 0xff, 0xff, 0x03, 0x00, 0x00, 0x00,
  0x03, 0x00, 0x00, 0x00, 0x03, 0x00, 0x00, 0x00, 0x03, 0x00, 0x00, 0x00,
  0x00, 0x00, 0x00, 0x01, 0x01, 0x00, 0x00, 0x00, 0x0b, 0x00, 0x00, 0x00,
  0x01, 0x00, 0x00, 0x00, 0x0a, 0x00, 0x00, 0x00, 0x62, 0xff, 0xff, 0xff,
  0x10, 0x00, 0x00, 0x00, 0x00, 0x00, 0x00, 0x01, 0x18, 0x00, 0x00, 0x00,
  0x1c, 0x00, 0x00, 0x00, 0x54, 0xff, 0xff, 0xff, 0x00, 0x00, 0x00, 0x01,
  0x01, 0x00, 0x00, 0x00, 0x01, 0x00, 0x00, 0x00, 0x01, 0x00, 0x00, 0x00,
  0x0a, 0x00, 0x00, 0x00, 0x03, 0x00, 0x00, 0x00, 0x09, 0x00, 0x00, 0x00,
  0x07, 0x00, 0x00, 0x00, 0x02, 0x00, 0x00, 0x00, 0x00, 0x00, 0x0e, 0x00,
  0x1a, 0x00, 0x14, 0x00, 0x10, 0x00, 0x0c, 0x00, 0x0b, 0x00, 0x04, 0x00,
  0x0e, 0x00, 0x00, 0x00, 0x24, 0x00, 0x00, 0x00, 0x00, 0x00, 0x00, 0x05,
  0x34, 0x00, 0x00, 0x00, 0x38, 0x00, 0x00, 0x00, 0x01, 0x00, 0x00, 0x00,
  0x00, 0x00, 0x0e, 0x00, 0x18, 0x00, 0x17, 0x00, 0x10, 0x00, 0x0c, 0x00,
  0x08, 0x00, 0x04, 0x00, 0x0e, 0x00, 0x00, 0x00, 0x02, 0x00, 0x00, 0x00,
  0x02, 0x00, 0x00, 0x00, 0x02, 0x00, 0x00, 0x00, 0x02, 0x00, 0x00, 0x00,
  0x00, 0x00, 0x00, 0x01, 0x01, 0x00, 0x00, 0x00, 0x09, 0x00, 0x00, 0x00,
  0x01, 0x00, 0x00, 0x00, 0x08, 0x00, 0x00, 0x00, 0x00, 0x00, 0x0e, 0x00,
  0x14, 0x00, 0x00, 0x00, 0x10, 0x00, 0x0c, 0x00, 0x0b, 0x00, 0x04, 0x00,
  0x0e, 0x00, 0x00, 0x00, 0x1c, 0x00, 0x00, 0x00, 0x00, 0x00, 0x00, 0x01,
  0x24, 0x00, 0x00, 0x00, 0x28, 0x00, 0x00, 0x00, 0x0c, 0x00, 0x10, 0x00,
  0x00, 0x00, 0x0c, 0x00, 0x08, 0x00, 0x07, 0x00, 0x0c, 0x00, 0x00, 0x00,
  0x00, 0x00, 0x00, 0x01, 0x01, 0x00, 0x00, 0x00, 0x01, 0x00, 0x00, 0x00,
  0x01, 0x00, 0x00, 0x00, 0x08, 0x00, 0x00, 0x00, 0x03, 0x00, 0x00, 0x00,
  0x00, 0x00, 0x00, 0x00, 0x06, 0x00, 0x00, 0x00, 0x01, 0x00, 0x00, 0x00,
  0x01, 0x00, 0x00, 0x00, 0x0e, 0x00, 0x00, 0x00, 0x01, 0x00, 0x00, 0x00,
  0x00, 0x00, 0x00, 0x00, 0x0f, 0x00, 0x00, 0x00, 0x58, 0x14, 0x00, 0x00,
  0x44, 0x12, 0x00, 0x00, 0xc4, 0x0e, 0x00, 0x00, 0x48, 0x0e, 0x00, 0x00,
  0xfc, 0x0d, 0x00, 0x00, 0x80, 0x0d, 0x00, 0x00, 0x8c, 0x0a, 0x00, 0x00,
  0x18, 0x05, 0x00, 0x00, 0x14, 0x04, 0x00, 0x00, 0x68, 0x03, 0x00, 0x00,
  0x5c, 0x02, 0x00, 0x00, 0xb0, 0x01, 0x00, 0x00, 0x1c, 0x01, 0x00, 0x00,
  0x70, 0x00, 0x00, 0x00, 0x04, 0x00, 0x00, 0x00, 0xf8, 0xeb, 0xff, 0xff,
  0x18, 0x00, 0x00, 0x00, 0x20, 0x00, 0x00, 0x00, 0x3c, 0x00, 0x00, 0x00,
  0x0f, 0x00, 0x00, 0x00, 0x00, 0x00, 0x00, 0x09, 0x44, 0x00, 0x00, 0x00,
  0x02, 0x00, 0x00, 0x00, 0xff, 0xff, 0xff, 0xff, 0x02, 0x00, 0x00, 0x00,
  0x04, 0xee, 0xff, 0xff, 0x08, 0x00, 0x00, 0x00, 0x10, 0x00, 0x00, 0x00,
  0x01, 0x00, 0x00, 0x00, 0x80, 0xff, 0xff, 0xff, 0xff, 0xff, 0xff, 0xff,
  0x01, 0x00, 0x00, 0x00, 0x00, 0x00, 0x80, 0x3b, 0x0d, 0x00, 0x00, 0x00,
  0x49, 0x64, 0x65, 0x6e, 0x74, 0x69, 0x74, 0x79, 0x5f, 0x69, 0x6e, 0x74,
  0x38, 0x00, 0x00, 0x00, 0x02, 0x00, 0x00, 0x00, 0x01, 0x00, 0x00, 0x00,
  0x02, 0x00, 0x00, 0x00, 0x60, 0xec, 0xff, 0xff, 0x18, 0x00, 0x00, 0x00,
  0x20, 0x00, 0x00, 0x00, 0x58, 0x00, 0x00, 0x00, 0x0e, 0x00, 0x00, 0x00,
  0x00, 0x00, 0x00, 0x09, 0x84, 0x00, 0x00, 0x00, 0x02, 0x00, 0x00, 0x00,
  0xff, 0xff, 0xff, 0xff, 0x02, 0x00, 0x00, 0x00, 0x44, 0xec, 0xff, 0xff,
  0x10, 0x00, 0x00, 0x00, 0x1c, 0x00, 0x00, 0x00, 0x20, 0x00, 0x00, 0x00,
  0x24, 0x00, 0x00, 0x00, 0x01, 0x00, 0x00, 0x00, 0xef, 0xff, 0xff, 0xff,
  0xff, 0xff, 0xff, 0xff, 0x00, 0x00, 0x00, 0x00, 0x01, 0x00, 0x00, 0x00,
  0xad, 0x6c, 0xee, 0x3e, 0x01, 0x00, 0x00, 0x00, 0x99, 0xa7, 0x85, 0x42,
  0x01, 0x00, 0x00, 0x00, 0x4f, 0xad, 0x4f, 0xc2, 0x30, 0x00, 0x00, 0x00,
  0x73, 0x65, 0x71, 0x75, 0x65, 0x6e, 0x74, 0x69, 0x61, 0x6c, 0x2f, 0x64,
  0x65, 0x6e, 0x73, 0x65, 0x2f, 0x4d, 0x61, 0x74, 0x4d, 0x75, 0x6c, 0x3b,
  0x73, 0x65, 0x71, 0x75, 0x65, 0x6e, 0x74, 0x69, 0x61, 0x6c, 0x2f, 0x64,
  0x65, 0x6e, 0x73, 0x65, 0x2f, 0x42, 0x69, 0x61, 0x73, 0x41, 0x64, 0x64,
  0x00, 0x00, 0x00, 0x00, 0x02, 0x00, 0x00, 0x00, 0x01, 0x00, 0x00, 0x00,
  0x02, 0x00, 0x00, 0x00, 0x08, 0xed, 0xff, 0xff, 0x18, 0x00, 0x00, 0x00,
  0x20, 0x00, 0x00, 0x00, 0x58, 0x00, 0x00, 0x00, 0x0d, 0x00, 0x00, 0x00,
  0x00, 0x00, 0x00, 0x09, 0x6c, 0x00, 0x00, 0x00, 0x02, 0x00, 0x00, 0x00,
  0xff, 0xff, 0xff, 0xff, 0x40, 0x06, 0x00, 0x00, 0xec, 0xec, 0xff, 0xff,
  0x10, 0x00, 0x00, 0x00, 0x1c, 0x00, 0x00, 0x00, 0x20, 0x00, 0x00, 0x00,
  0x24, 0x00, 0x00, 0x00, 0x01, 0x00, 0x00, 0x00, 0x80, 0xff, 0xff, 0xff,
  0xff, 0xff, 0xff, 0xff, 0x00, 0x00, 0x00, 0x00, 0x01, 0x00, 0x00, 0x00,
  0x2b, 0x2d, 0x00, 0x3e, 0x01, 0x00, 0x00, 0x00, 0xfc, 0x59, 0xff, 0x41,
  0x01, 0x00, 0x00, 0x00, 0x00, 0x00, 0x00, 0x00, 0x1a, 0x00, 0x00, 0x00,
  0x73, 0x65, 0x71, 0x75, 0x65, 0x6e, 0x74, 0x69, 0x61, 0x6c, 0x2f, 0x66,
  0x6c, 0x61, 0x74, 0x74, 0x65, 0x6e, 0x2f, 0x52, 0x65, 0x73, 0x68, 0x61,
  0x70, 0x65, 0x00, 0x00, 0x02, 0x00, 0x00, 0x00, 0x01, 0x00, 0x00, 0x00,
  0x40, 0x06, 0x00, 0x00, 0x98, 0xed, 0xff, 0xff, 0x18, 0x00, 0x00, 0x00,
  0x28, 0x00, 0x00, 0x00, 0x60, 0x00, 0x00, 0x00, 0x0c, 0x00, 0x00, 0x00,
  0x00, 0x00, 0x00, 0x09, 0x7c, 0x00, 0x00, 0x00, 0x04, 0x00, 0x00, 0x00,
  0xff, 0xff, 0xff, 0xff, 0x05, 0x00, 0x00, 0x00, 0x05, 0x00, 0x00, 0x00,
  0x40, 0x00, 0x00, 0x00, 0x84, 0xed, 0xff, 0xff, 0x10, 0x00, 0x00, 0x00,
  0x1c, 0x00, 0x00, 0x00, 0x20, 0x00, 0x00, 0x00, 0x24, 0x00, 0x00, 0x00,
  0x01, 0x00, 0x00, 0x00, 0x80, 0xff, 0xff, 0xff, 0xff, 0xff, 0xff, 0xff,
  0x00, 0x00, 0x00, 0x00, 0x01, 0x00, 0x00, 0x00, 0x2b, 0x2d, 0x00, 0x3e,
  0x01, 0x00, 0x00, 0x00, 0xfc, 0x59, 0xff, 0x41, 0x01, 0x00, 0x00, 0x00,
  0x00, 0x00, 0x00, 0x00, 0x22, 0x00, 0x00, 0x00, 0x73, 0x65, 0x71, 0x75,
  0x65, 0x6e, 0x74, 0x69, 0x61, 0x6c, 0x2f, 0x6d, 0x61, 0x78, 0x5f, 0x70,
  0x6f, 0x6f, 0x6c, 0x69, 0x6e, 0x67, 0x32, 0x64, 0x5f, 0x31, 0x2f, 0x4d,
  0x61, 0x78, 0x50, 0x6f, 0x6f, 0x6c, 0x00, 0x00, 0x04, 0x00, 0x00, 0x00,
  0x01, 0x00, 0x00, 0x00, 0x05, 0x00, 0x00, 0x00, 0x05, 0x00, 0x00, 0x00,
  0x40, 0x00, 0x00, 0x00, 0x40, 0xee, 0xff, 0xff, 0x18, 0x00, 0x00, 0x00,
  0x28, 0x00, 0x00, 0x00, 0x60, 0x00, 0x00, 0x00, 0x0b, 0x00, 0x00, 0x00,
  0x00, 0x00, 0x00, 0x09, 0xdc, 0x00, 0x00, 0x00, 0x04, 0x00, 0x00, 0x00,
  0xff, 0xff, 0xff, 0xff, 0x10, 0x00, 0x00, 0x00, 0x10, 0x00, 0x00, 0x00,
  0x40, 0x00, 0x00, 0x00, 0x2c, 0xee, 0xff, 0xff, 0x10, 0x00, 0x00, 0x00,
  0x1c, 0x00, 0x00, 0x00, 0x20, 0x00, 0x00, 0x00, 0x24, 0x00, 0x00, 0x00,
  0x01, 0x00, 0x00, 0x00, 0x80, 0xff, 0xff, 0xff, 0xff, 0xff, 0xff, 0xff,
  0x00, 0x00, 0x00, 0x00, 0x01, 0x00, 0x00, 0x00, 0x2b, 0x2d, 0x00, 0x3e,
  0x01, 0x00, 0x00, 0x00, 0xfc, 0x59, 0xff, 0x41, 0x01, 0x00, 0x00, 0x00,
  0x00, 0x00, 0x00, 0x00, 0x83, 0x00, 0x00, 0x00, 0x73, 0x65, 0x71, 0x75,
  0x65, 0x6e, 0x74, 0x69, 0x61, 0x6c, 0x2f, 0x63, 0x6f, 0x6e, 0x76, 0x32,
  0x64, 0x5f, 0x31, 0x2f, 0x52, 0x65, 0x6c, 0x75, 0x3b, 0x73, 0x65, 0x71,
  0x75, 0x65, 0x6e, 0x74, 0x69, 0x61, 0x6c, 0x2f, 0x63, 0x6f, 0x6e, 0x76,
  0x32, 0x64, 0x5f, 0x31, 0x2f, 0x42, 0x69, 0x61, 0x73, 0x41, 0x64, 0x64,
  0x3b, 0x73, 0x65, 0x71, 0x75, 0x65, 0x6e, 0x74, 0x69, 0x61, 0x6c, 0x2f,
  0x63, 0x6f, 0x6e, 0x76, 0x32, 0x64, 0x5f, 0x31, 0x2f, 0x43, 0x6f, 0x6e,
  0x76, 0x32, 0x44, 0x3b, 0x73, 0x65, 0x71, 0x75, 0x65, 0x6e, 0x74, 0x69,
  0x61, 0x6c, 0x2f, 0x63, 0x6f, 0x6e, 0x76, 0x32, 0x64, 0x5f, 0x31, 0x2f,
  0x42, 0x69, 0x61, 0x73, 0x41, 0x64, 0x64, 0x2f, 0x52, 0x65, 0x61, 0x64,
  0x56, 0x61, 0x72, 0x69, 0x61, 0x62, 0x6c, 0x65, 0x4f, 0x70, 0x2f, 0x72,
  0x65, 0x73, 0x6f, 0x75, 0x72, 0x63, 0x65, 0x00, 0x04, 0x00, 0x00, 0x00,
  0x01, 0x00, 0x00, 0x00, 0x10, 0x00, 0x00, 0x00, 0x10, 0x00, 0x00, 0x00,
  0x40, 0x00, 0x00, 0x00, 0x48, 0xef, 0xff, 0xff, 0x18, 0x00, 0x00, 0x00,
  0x28, 0x00, 0x00, 0x00, 0x60, 0x00, 0x00, 0x00, 0x0a, 0x00, 0x00, 0x00,
  0x00, 0x00, 0x00, 0x09, 0x7c, 0x00, 0x00, 0x00, 0x04, 0x00, 0x00, 0x00,
  0xff, 0xff, 0xff, 0xff, 0x10, 0x00, 0x00, 0x00, 0x10, 0x00, 0x00, 0x00,
  0x20, 0x00, 0x00, 0x00, 0x34, 0xef, 0xff, 0xff, 0x10, 0x00, 0x00, 0x00,
  0x1c, 0x00, 0x00, 0x00, 0x20, 0x00, 0x00, 0x00, 0x24, 0x00, 0x00, 0x00,
  0x01, 0x00, 0x00, 0x00, 0x80, 0xff, 0xff, 0xff, 0xff, 0xff, 0xff, 0xff,
  0x00, 0x00, 0x00, 0x00, 0x01, 0x00, 0x00, 0x00, 0xd9, 0x95, 0x05, 0x3f,
  0x01, 0x00, 0x00, 0x00, 0x43, 0x10, 0x05, 0x43, 0x01, 0x00, 0x00, 0x00,
  0x00, 0x00, 0x00, 0x00, 0x20, 0x00, 0x00, 0x00, 0x73, 0x65, 0x71, 0x75,
  0x65, 0x6e, 0x74, 0x69, 0x61, 0x6c, 0x2f, 0x6d, 0x61, 0x78, 0x5f, 0x70,
  0x6f, 0x6f, 0x6c, 0x69, 0x6e, 0x67, 0x32, 0x64, 0x2f, 0x4d, 0x61, 0x78,
  0x50, 0x6f, 0x6f, 0x6c, 0x00, 0x00, 0x00, 0x00, 0x04, 0x00, 0x00, 0x00,
  0x01, 0x00, 0x00, 0x00, 0x10, 0x00, 0x00, 0x00, 0x10, 0x00, 0x00, 0x00,
  0x20, 0x00, 0x00, 0x00, 0xf0, 0xef, 0xff, 0xff, 0x18, 0x00, 0x00, 0x00,
  0x28, 0x00, 0x00, 0x00, 0x60, 0x00, 0x00, 0x00, 0x09, 0x00, 0x00, 0x00,
  0x00, 0x00, 0x00, 0x09, 0xd4, 0x00, 0x00, 0x00, 0x04, 0x00, 0x00, 0x00,
  0xff, 0xff, 0xff, 0xff, 0x20, 0x00, 0x00, 0x00, 0x20, 0x00, 0x00, 0x00,
  0x20, 0x00, 0x00, 0x00, 0xdc, 0xef, 0xff, 0xff, 0x10, 0x00, 0x00, 0x00,
  0x1c, 0x00, 0x00, 0x00, 0x20, 0x00, 0x00, 0x00, 0x24, 0x00, 0x00, 0x00,
  0x01, 0x00, 0x00, 0x00, 0x80, 0xff, 0xff, 0xff, 0xff, 0xff, 0xff, 0xff,
  0x00, 0x00, 0x00, 0x00, 0x01, 0x00, 0x00, 0x00, 0xd9, 0x95, 0x05, 0x3f,
  0x01, 0x00, 0x00, 0x00, 0x43, 0x10, 0x05, 0x43, 0x01, 0x00, 0x00, 0x00,
  0x00, 0x00, 0x00, 0x00, 0x7b, 0x00, 0x00, 0x00, 0x73, 0x65, 0x71, 0x75,
  0x65, 0x6e, 0x74, 0x69, 0x61, 0x6c, 0x2f, 0x63, 0x6f, 0x6e, 0x76, 0x32,
  0x64, 0x2f, 0x52, 0x65, 0x6c, 0x75, 0x3b, 0x73, 0x65, 0x71, 0x75, 0x65,
  0x6e, 0x74, 0x69, 0x61, 0x6c, 0x2f, 0x63, 0x6f, 0x6e, 0x76, 0x32, 0x64,
  0x2f, 0x42, 0x69, 0x61, 0x73, 0x41, 0x64, 0x64, 0x3b, 0x73, 0x65, 0x71,
  0x75, 0x65, 0x6e, 0x74, 0x69, 0x61, 0x6c, 0x2f, 0x63, 0x6f, 0x6e, 0x76,
  0x32, 0x64, 0x2f, 0x43, 0x6f, 0x6e, 0x76, 0x32, 0x44, 0x3b, 0x73, 0x65,
  0x71, 0x75, 0x65, 0x6e, 0x74, 0x69, 0x61, 0x6c, 0x2f, 0x63, 0x6f, 0x6e,
  0x76, 0x32, 0x64, 0x2f, 0x42, 0x69, 0x61, 0x73, 0x41, 0x64, 0x64, 0x2f,
  0x52, 0x65, 0x61, 0x64, 0x56, 0x61, 0x72, 0x69, 0x61, 0x62, 0x6c, 0x65,
  0x4f, 0x70, 0x2f, 0x72, 0x65, 0x73, 0x6f, 0x75, 0x72, 0x63, 0x65, 0x00,
  0x04, 0x00, 0x00, 0x00, 0x01, 0x00, 0x00, 0x00, 0x20, 0x00, 0x00, 0x00,
  0x20, 0x00, 0x00, 0x00, 0x20, 0x00, 0x00, 0x00, 0xfa, 0xf2, 0xff, 0xff,
  0x14, 0x00, 0x00, 0x00, 0x34, 0x05, 0x00, 0x00, 0x08, 0x00, 0x00, 0x00,
  0x00, 0x00, 0x00, 0x09, 0x48, 0x05, 0x00, 0x00, 0xc4, 0xf0, 0xff, 0xff,
  0x10, 0x00, 0x00, 0x00, 0x10, 0x02, 0x00, 0x00, 0x10, 0x03, 0x00, 0x00,
  0x10, 0x04, 0x00, 0x00, 0x40, 0x00, 0x00, 0x00, 0x00, 0x00, 0x00, 0x00,
  0x00, 0x00, 0x00, 0x00, 0x00, 0x00, 0x00, 0x00, 0x00, 0x00, 0x00, 0x00,
  0x00, 0x00, 0x00, 0x00, 0x00, 0x00, 0x00, 0x00, 0x00, 0x00, 0x00, 0x00,
  0x00, 0x00, 0x00, 0x00, 0x00, 0x00, 0x00, 0x00, 0x00, 0x00, 0x00, 0x00,
  0x00, 0x00, 0x00, 0x00, 0x00, 0x00, 0x00, 0x00, 0x00, 0x00, 0x00, 0x00,
  0x00, 0x00, 0x00, 0x00, 0x00, 0x00, 0x00, 0x00, 0x00, 0x00, 0x00, 0x00,
  0x00, 0x00, 0x00, 0x00, 0x00, 0x00, 0x00, 0x00, 0x00, 0x00, 0x00, 0x00,
  0x00, 0x00, 0x00, 0x00, 0x00, 0x00, 0x00, 0x00, 0x00, 0x00, 0x00, 0x00,
  0x00, 0x00, 0x00, 0x00, 0x00, 0x00, 0x00, 0x00, 0x00, 0x00, 0x00, 0x00,
  0x00, 0x00, 0x00, 0x00, 0x00, 0x00, 0x00, 0x00, 0x00, 0x00, 0x00, 0x00,
  0x00, 0x00, 0x00, 0x00, 0x00, 0x00, 0x00, 0x00, 0x00, 0x00, 0x00, 0x00,
  0x00, 0x00, 0x00, 0x00, 0x00, 0x00, 0x00, 0x00, 0x00, 0x00, 0x00, 0x00,
  0x00, 0x00, 0x00, 0x00, 0x00, 0x00, 0x00, 0x00, 0x00, 0x00, 0x00, 0x00,
  0x00, 0x00, 0x00, 0x00, 0x00, 0x00, 0x00, 0x00, 0x00, 0x00, 0x00, 0x00,
  0x00, 0x00, 0x00, 0x00, 0x00, 0x00, 0x00, 0x00, 0x00, 0x00, 0x00, 0x00,
  0x00, 0x00, 0x00, 0x00, 0x00, 0x00, 0x00, 0x00, 0x00, 0x00, 0x00, 0x00,
  0x00, 0x00, 0x00, 0x00, 0x00, 0x00, 0x00, 0x00, 0x00, 0x00, 0x00, 0x00,
  0x00, 0x00, 0x00, 0x00, 0x00, 0x00, 0x00, 0x00, 0x00, 0x00, 0x00, 0x00,
  0x00, 0x00, 0x00, 0x00, 0x00, 0x00, 0x00, 0x00, 0x00, 0x00, 0x00, 0x00,
  0x00, 0x00, 0x00, 0x00, 0x00, 0x00, 0x00, 0x00, 0x00, 0x00, 0x00, 0x00,
  0x00, 0x00, 0x00, 0x00, 0x00, 0x00, 0x00, 0x00, 0x00, 0x00, 0x00, 0x00,
  0x00, 0x00, 0x00, 0x00, 0x00, 0x00, 0x00, 0x00, 0x00, 0x00, 0x00, 0x00,
  0x00, 0x00, 0x00, 0x00, 0x00, 0x00, 0x00, 0x00, 0x00, 0x00, 0x00, 0x00,
  0x00, 0x00, 0x00, 0x00, 0x00, 0x00, 0x00, 0x00, 0x00, 0x00, 0x00, 0x00,
  0x00, 0x00, 0x00, 0x00, 0x00, 0x00, 0x00, 0x00, 0x00, 0x00, 0x00, 0x00,
  0x00, 0x00, 0x00, 0x00, 0x00, 0x00, 0x00, 0x00, 0x00, 0x00, 0x00, 0x00,
  0x00, 0x00, 0x00, 0x00, 0x00, 0x00, 0x00, 0x00, 0x00, 0x00, 0x00, 0x00,
  0x00, 0x00, 0x00, 0x00, 0x00, 0x00, 0x00, 0x00, 0x00, 0x00, 0x00, 0x00,
  0x00, 0x00, 0x00, 0x00, 0x00, 0x00, 0x00, 0x00, 0x00, 0x00, 0x00, 0x00,
  0x00, 0x00, 0x00, 0x00, 0x00, 0x00, 0x00, 0x00, 0x00, 0x00, 0x00, 0x00,
  0x00, 0x00, 0x00, 0x00, 0x00, 0x00, 0x00, 0x00, 0x00, 0x00, 0x00, 0x00,
  0x00, 0x00, 0x00, 0x00, 0x00, 0x00, 0x00, 0x00, 0x00, 0x00, 0x00, 0x00,
  0x00, 0x00, 0x00, 0x00, 0x00, 0x00, 0x00, 0x00, 0x00, 0x00, 0x00, 0x00,
  0x00, 0x00, 0x00, 0x00, 0x00, 0x00, 0x00, 0x00, 0x00, 0x00, 0x00, 0x00,
  0x00, 0x00, 0x00, 0x00, 0x00, 0x00, 0x00, 0x00, 0x00, 0x00, 0x00, 0x00,
  0x00, 0x00, 0x00, 0x00, 0x00, 0x00, 0x00, 0x00, 0x00, 0x00, 0x00, 0x00,
  0x00, 0x00, 0x00, 0x00, 0x00, 0x00, 0x00, 0x00, 0x00, 0x00, 0x00, 0x00,
  0x00, 0x00, 0x00, 0x00, 0x00, 0x00, 0x00, 0x00, 0x00, 0x00, 0x00, 0x00,
  0x00, 0x00, 0x00, 0x00, 0x00, 0x00, 0x00, 0x00, 0x00, 0x00, 0x00, 0x00,
  0x00, 0x00, 0x00, 0x00, 0x00, 0x00, 0x00, 0x00, 0x00, 0x00, 0x00, 0x00,
  0x00, 0x00, 0x00, 0x00, 0x00, 0x00, 0x00, 0x00, 0x00, 0x00, 0x00, 0x00,
  0x00, 0x00, 0x00, 0x00, 0x00, 0x00, 0x00, 0x00, 0x00, 0x00, 0x00, 0x00,
  0x00, 0x00, 0x00, 0x00, 0x00, 0x00, 0x00, 0x00, 0x00, 0x00, 0x00, 0x00,
  0x00, 0x00, 0x00, 0x00, 0x40, 0x00, 0x00, 0x00, 0x8f, 0x31, 0x92, 0x3a,
  0x97, 0x69, 0xd2, 0x3a, 0x81, 0x7f, 0x9e, 0x3a, 0x02, 0x1f, 0x9f, 0x3a,
  0x01, 0x1e, 0xa2, 0x3a, 0xcc, 0x74, 0xc6, 0x3a, 0xe9, 0xaa, 0xc8, 0x3a,
  0x20, 0x76, 0xe4, 0x3a, 0xb8, 0x75, 0xef, 0x3a, 0x79, 0x11, 0xb5, 0x3a,
  0xdc, 0x90, 0xb6, 0x3a, 0xc8, 0xba, 0xd4, 0x3a, 0xc3, 0x69, 0x83, 0x3a,
